{
  "version": "1.0",
  "truncation": null,
  "padding": null,
  "added_tokens": [
    {
      "id": 0,
      "content": "<|endoftext|>",
      "single_word": false,
      "lstrip": false,
      "rstrip": false,
      "normalized": false,
      "special": true
    }
  ],
  "normalizer": null,
  "pre_tokenizer": {
    "type": "ByteLevel",
    "add_prefix_space": false,
    "trim_offsets": true,
    "use_regex": true
  },
  "post_processor": {
    "type": "ByteLevel",
    "add_prefix_space": true,
    "trim_offsets": false,
    "use_regex": true
  },
  "decoder": {
    "type": "ByteLevel",
    "add_prefix_space": true,
    "trim_offsets": true,
    "use_regex": true
  },
  "model": {
    "type": "BPE",
    "dropout": null,
    "unk_token": null,
    "continuing_subword_prefix": null,
    "end_of_word_suffix": null,
    "fuse_unk": false,
    "byte_fallback": false,
    "ignore_merges": false,
    "vocab": {
      "<|endoftext|>": 0,
      "!": 1,
      "\"": 2,
      "#": 3,
      "$": 4,
      "%": 5,
      "&": 6,
      "'": 7,
      "(": 8,
      ")": 9,
      "*": 10,
      "+": 11,
      ",": 12,
      "-": 13,
      ".": 14,
      "/": 15,
      "0": 16,
      "1": 17,
      "2": 18,
      "3": 19,
      "4": 20,
      "5": 21,
      "6": 22,
      "7": 23,
      "8": 24,
      "9": 25,
      ":": 26,
      ";": 27,
      "<": 28,
      "=": 29,
      ">": 30,
      "?": 31,
      "@": 32,
      "A": 33,
      "B": 34,
      "C": 35,
      "D": 36,
      "E": 37,
      "F": 38,
      "G": 39,
      "H": 40,
      "I": 41,
      "J": 42,
      "K": 43,
      "L": 44,
      "M": 45,
      "N": 46,
      "O": 47,
      "P": 48,
      "Q": 49,
      "R": 50,
      "S": 51,
      "T": 52,
      "U": 53,
      "V": 54,
      "W": 55,
      "X": 56,
      "Y": 57,
      "Z": 58,
      "[": 59,
      "\\": 60,
      "]": 61,
      "^": 62,
      "_": 63,
      "`": 64,
      "a": 65,
      "b": 66,
      "c": 67,
      "d": 68,
      "e": 69,
      "f": 70,
      "g": 71,
      "h": 72,
      "i": 73,
      "j": 74,
      "k": 75,
      "l": 76,
      "m": 77,
      "n": 78,
      "o": 79,
      "p": 80,
      "q": 81,
      "r": 82,
      "s": 83,
      "t": 84,
      "u": 85,
      "v": 86,
      "w": 87,
      "x": 88,
      "y": 89,
      "z": 90,
      "{": 91,
      "|": 92,
      "}": 93,
      "~": 94,
      "¡": 95,
      "¢": 96,
      "£": 97,
      "¤": 98,
      "¥": 99,
      "¦": 100,
      "§": 101,
      "¨": 102,
      "©": 103,
      "ª": 104,
      "«": 105,
      "¬": 106,
      "®": 107,
      "¯": 108,
      "°": 109,
      "±": 110,
      "²": 111,
      "³": 112,
      "´": 113,
      "µ": 114,
      "¶": 115,
      "·": 116,
      "¸": 117,
      "¹": 118,
      "º": 119,
      "»": 120,
      "¼": 121,
      "½": 122,
      "¾": 123,
      "¿": 124,
      "À": 125,
      "Á": 126,
      "Â": 127,
      "Ã": 128,
      "Ä": 129,
      "Å": 130,
      "Æ": 131,
      "Ç": 132,
      "È": 133,
      "É": 134,
      "Ê": 135,
      "Ë": 136,
      "Ì": 137,
      "Í": 138,
      "Î": 139,
      "Ï": 140,
      "Ð": 141,
      "Ñ": 142,
      "Ò": 143,
      "Ó": 144,
      "Ô": 145,
      "Õ": 146,
      "Ö": 147,
      "×": 148,
      "Ø": 149,
      "Ù": 150,
      "Ú": 151,
      "Û": 152,
      "Ü": 153,
      "Ý": 154,
      "Þ": 155,
      "ß": 156,
      "à": 157,
      "á": 158,
      "â": 159,
      "ã": 160,
      "ä": 161,
      "å": 162,
      "æ": 163,
      "ç": 164,
      "è": 165,
      "é": 166,
      "ê": 167,
      "ë": 168,
      "ì": 169,
      "í": 170,
      "î": 171,
      "ï": 172,
      "ð": 173,
      "ñ": 174,
      "ò": 175,
      "ó": 176,
      "ô": 177,
      "õ": 178,
      "ö": 179,
      "÷": 180,
      "ø": 181,
      "ù": 182,
      "ú": 183,
      "û": 184,
      "ü": 185,
      "ý": 186,
      "þ": 187,
      "ÿ": 188,
      "Ā": 189,
      "ā": 190,
      "Ă": 191,
      "ă": 192,
      "Ą": 193,
      "ą": 194,
      "Ć": 195,
      "ć": 196,
      "Ĉ": 197,
      "ĉ": 198,
      "Ċ": 199,
      "ċ": 200,
      "Č": 201,
      "č": 202,
      "Ď": 203,
      "ď": 204,
      "Đ": 205,
      "đ": 206,
      "Ē": 207,
      "ē": 208,
      "Ĕ": 209,
      "ĕ": 210,
      "Ė": 211,
      "ė": 212,
      "Ę": 213,
      "ę": 214,
      "Ě": 215,
      "ě": 216,
      "Ĝ": 217,
      "ĝ": 218,
      "Ğ": 219,
      "ğ": 220,
      "Ġ": 221,
      "ġ": 222,
      "Ģ": 223,
      "ģ": 224,
      "Ĥ": 225,
      "ĥ": 226,
      "Ħ": 227,
      "ħ": 228,
      "Ĩ": 229,
      "ĩ": 230,
      "Ī": 231,
      "ī": 232,
      "Ĭ": 233,
      "ĭ": 234,
      "Į": 235,
      "į": 236,
      "İ": 237,
      "ı": 238,
      "Ĳ": 239,
      "ĳ": 240,
      "Ĵ": 241,
      "ĵ": 242,
      "Ķ": 243,
      "ķ": 244,
      "ĸ": 245,
      "Ĺ": 246,
      "ĺ": 247,
      "Ļ": 248,
      "ļ": 249,
      "Ľ": 250,
      "ľ": 251,
      "Ŀ": 252,
      "ŀ": 253,
      "Ł": 254,
      "ł": 255,
      "Ń": 256,
      "Ġt": 257,
      "he": 258,
      "Ġa": 259,
      "Ġs": 260,
      "Ġw": 261,
      "Ġthe": 262,
      "nd": 263,
      "ed": 264,
      "in": 265,
      "Ġb": 266,
      "Ġto": 267,
      "Ġand": 268,
      "re": 269,
      "Ġf": 270,
      "Ġh": 271,
      "it": 272,
      "ou": 273,
      "Ġc": 274,
      "ĠT": 275,
      "er": 276,
      "Ġwa": 277,
      "Ġp": 278,
      "Ġd": 279,
      "on": 280,
      "Ġl": 281,
      "Ġm": 282,
      "is": 283,
      "at": 284,
      "om": 285,
      "ar": 286,
      "ay": 287,
      "en": 288,
      "or": 289,
      "ing": 290,
      "ll": 291,
      "Ġwas": 292,
      "ĠThe": 293,
      "Ġn": 294,
      "an": 295,
      "Ġhe": 296,
      "im": 297,
      "Ġo": 298,
      "id": 299,
      "es": 300,
      "Ġg": 301,
      "Ġsa": 302,
      "Ġha": 303,
      "ĠS": 304,
      "le": 305,
      "Ġin": 306,
      "ot": 307,
      "Ġth": 308,
      "et": 309,
      "ir": 310,
      "Ġof": 311,
      "am": 312,
      "ig": 313,
      "Ġit": 314,
      "il": 315,
      "ic": 316,
      "ĠH": 317,
      "ow": 318,
      "ver": 319,
      "Ġu": 320,
      "Ġe": 321,
      "ut": 322,
      "Ġbe": 323,
      "ĠThey": 324,
      "Ġpl": 325,
      "Ġy": 326,
      "ith": 327,
      "ri": 328,
      "Ġwith": 329,
      "ĠHe": 330,
      "Ġr": 331,
      "Ġ\"": 332,
      "al": 333,
      "ĠI": 334,
      "ve": 335,
      "oo": 336,
      "pp": 337,
      "Ġst": 338,
      "st": 339,
      "ent": 340,
      "ac": 341,
      "ld": 342,
      "Ġsaid": 343,
      "Ġplay": 344,
      "Ġday": 345,
      "On": 346,
      "Ġon": 347,
      "Ġyou": 348,
      "nt": 349,
      "ked": 350,
      "se": 351,
      "Ġher": 352,
      "Ġhis": 353,
      "ke": 354,
      "ĠShe": 355,
      "ĠTim": 356,
      "all": 357,
      "very": 358,
      "Ġwe": 359,
      "un": 360,
      "Ġthat": 361,
      "her": 362,
      "ad": 363,
      "Ġbig": 364,
      "Ġfor": 365,
      "end": 366,
      "ion": 367,
      "ĠL": 368,
      "Ġnot": 369,
      "ĠB": 370,
      "Ġthey": 371,
      "Ġre": 372,
      "ce": 373,
      "ĠM": 374,
      "Ġis": 375,
      "Ġhapp": 376,
      "ily": 377,
      "Ġli": 378,
      "riend": 379,
      "Ġfriend": 380,
      "Ġhad": 381,
      "Ġup": 382,
      "Ġdo": 383,
      "Ġwant": 384,
      "itt": 385,
      "ould": 386,
      "Ġsh": 387,
      "ĠA": 388,
      "ec": 389,
      "Ġso": 390,
      "'s": 391,
      "Ġvery": 392,
      "Ġan": 393,
      "out": 394,
      "ly": 395,
      "ur": 396,
      "uc": 397,
      "Ġwh": 398,
      "Ġhappy": 399,
      "ter": 400,
      "Ġne": 401,
      "One": 402,
      "Ġsaw": 403,
      "Ġk": 404,
      "ound": 405,
      "Ġmom": 406,
      "Ġas": 407,
      "ittle": 408,
      "ime": 409,
      "Ġlittle": 410,
      "ro": 411,
      "ht": 412,
      "Ġshe": 413,
      "Ġtime": 414,
      "The": 415,
      "Ġthere": 416,
      "el": 417,
      "Ġwere": 418,
      ".\"": 419,
      "Ġnam": 420,
      "Ġbut": 421,
      "ome": 422,
      "ill": 423,
      "Ġbo": 424,
      "ore": 425,
      "Ġsm": 426,
      "ved": 427,
      "Ġnamed": 428,
      "ide": 429,
      "Ġat": 430,
      "Ġare": 431,
      "as": 432,
      "Ġall": 433,
      "ĠLily": 434,
      "ug": 435,
      "Ġwanted": 436,
      "ul": 437,
      "ain": 438,
      "ird": 439,
      "ĠIt": 440,
      "Ġfriends": 441,
      "ind": 442,
      "ue": 443,
      "!\"": 444,
      "âĢ": 445,
      "ĠTom": 446,
      "ake": 447,
      "Ġtoo": 448,
      "lp": 449,
      "Ġbird": 450,
      "Ġlo": 451,
      "ry": 452,
      "Ġhelp": 453,
      "Ġcan": 454,
      "um": 455,
      "art": 456,
      "Ġwent": 457,
      "Ġse": 458,
      "Ġloo": 459,
      "Once": 460,
      "rom": 461,
      "Ġj": 462,
      "ack": 463,
      "Ġupon": 464,
      "ag": 465,
      "ood": 466,
      "get": 467,
      "Ġtheir": 468,
      "ame": 469,
      "Ġfun": 470,
      "ard": 471,
      "Ġle": 472,
      "op": 473,
      "Ġdid": 474,
      "Ġtoy": 475,
      "Ġhave": 476,
      "if": 477,
      "gether": 478,
      "Ġtre": 479,
      "ab": 480,
      "ch": 481,
      "Ġtogether": 482,
      "hen": 483,
      "Ġcat": 484,
      "Ġsp": 485,
      "ation": 486,
      "est": 487,
      "Ġout": 488,
      "Ġcould": 489,
      "ĠW": 490,
      "ĠC": 491,
      "oug": 492,
      "Ġgo": 493,
      "ark": 494,
      "Ġthem": 495,
      "Ġex": 496,
      "Ġman": 497,
      "hed": 498,
      "ol": 499,
      "Ġkn": 500,
      "Ġdog": 501,
      "us": 502,
      "Ġcl": 503,
      "way": 504,
      "Ġal": 505,
      "Ġhim": 506,
      "Ġro": 507,
      "ight": 508,
      "irl": 509,
      "are": 510,
      "one": 511,
      "my": 512,
      "?\"": 513,
      "Ġplayed": 514,
      "Ġgirl": 515,
      "Ġfrom": 516,
      "Ġme": 517,
      "Ġball": 518,
      "ong": 519,
      "'t": 520,
      "hing": 521,
      "Ġsc": 522,
      "ax": 523,
      "ther": 524,
      "Ġgr": 525,
      "ure": 526,
      "ist": 527,
      "Ġor": 528,
      "ast": 529,
      "ess": 530,
      "Ġfound": 531,
      "Ġsad": 532,
      "ud": 533,
      "ĠF": 534,
      "Ġbec": 535,
      "Ġtree": 536,
      "ect": 537,
      "Ġboy": 538,
      "ap": 539,
      "Ġwor": 540,
      "and": 541,
      "Ġch": 542,
      "ell": 543,
      "Ġother": 544,
      "Ġlooked": 545,
      "ers": 546,
      "ice": 547,
      "Ġback": 548,
      "Ġloved": 549,
      "Ġv": 550,
      "Ġar": 551,
      "Ġwould": 552,
      "own": 553,
      "ĠSue": 554,
      "Ġlike": 555,
      "qu": 556,
      "ĠD": 557,
      "Ġag": 558,
      "Ġno": 559,
      "Ġnew": 560,
      "side": 561,
      "ust": 562,
      "Ġsee": 563,
      "ive": 564,
      "ate": 565,
      "our": 566,
      "Ġtr": 567,
      "ĠJ": 568,
      "Ġstart": 569,
      "ia": 570,
      "ĠMax": 571,
      "Ġcar": 572,
      "ant": 573,
      "Ġab": 574,
      "omet": 575,
      "Ġbr": 576,
      "ep": 577,
      "ings": 578,
      "Ġpark": 579,
      "ĠE": 580,
      "elt": 581,
      "ĠOne": 582,
      "ade": 583,
      "ak": 584,
      "ĠBut": 585,
      "You": 586,
      "ĠP": 587,
      "Ġwill": 588,
      "ared": 589,
      "Ġmake": 590,
      "Ġliked": 591,
      "Ġcon": 592,
      "Ġyour": 593,
      "ks": 594,
      "ie": 595,
      "Ġpre": 596,
      "Ġfelt": 597,
      "ought": 598,
      "ouse": 599,
      "Ġasked": 600,
      "Ġsmil": 601,
      "Ġgood": 602,
      "ally": 603,
      "ace": 604,
      "Ġcame": 605,
      "Ġsomet": 606,
      "Ġsmall": 607,
      "Ġstarted": 608,
      "ĠSam": 609,
      "ach": 610,
      "Ġcom": 611,
      "ĠBen": 612,
      "ful": 613,
      "os": 614,
      "Ġby": 615,
      "Ġwhat": 616,
      "Ġsay": 617,
      "ob": 618,
      "aug": 619,
      "Ġint": 620,
      "Ġsome": 621,
      "ort": 622,
      "Ġthis": 623,
      "ave": 624,
      "Ġpro": 625,
      "ous": 626,
      "arn": 627,
      "ried": 628,
      "Ġco": 629,
      "Ġpr": 630,
      "Ġfind": 631,
      "Ġmade": 632,
      "Ġfl": 633,
      "Ġsmiled": 634,
      "ish": 635,
      "Ġfe": 636,
      "uch": 637,
      "ĠSp": 638,
      "Ġmore": 639,
      "ies": 640,
      "Ġevery": 641,
      "ile": 642,
      "Ġwhen": 643,
      "Ġput": 644,
      "em": 645,
      "Ġhome": 646,
      "Ġsomething": 647,
      "fe": 648,
      "ened": 649,
      "Ġaway": 650,
      "Ġwho": 651,
      "Ġbl": 652,
      "Ġthought": 653,
      "ang": 654,
      "ct": 655,
      "Ġmo": 656,
      "Ġabout": 657,
      "Ġagain": 658,
      "Ġlearn": 659,
      "ick": 660,
      "Ġ(": 661,
      "âĢĻ": 662,
      "Ġplaying": 663,
      "Ġwal": 664,
      "nder": 665,
      "Ġ1": 666,
      "Ġdown": 667,
      "ck": 668,
      "Ġmy": 669,
      "ss": 670,
      "Ġthen": 671,
      "use": 672,
      "ook": 673,
      "Ġran": 674,
      "ĠSpot": 675,
      "Ġaround": 676,
      "ise": 677,
      "ew": 678,
      "Ġone": 679,
      "th": 680,
      "ĠR": 681,
      "Ġun": 682,
      "ty": 683,
      "ine": 684,
      "ial": 685,
      "Ġtook": 686,
      "Ġus": 687,
      "Ġget": 688,
      "ity": 689,
      "Ġmany": 690,
      "oth": 691,
      "ĠYou": 692,
      "Ġhouse": 693,
      "Ġthings": 694,
      "ĠN": 695,
      "hat": 696,
      "Ġlaug": 697,
      "ny": 698,
      "Ġthan": 699,
      "Ġany": 700,
      "Ġtoys": 701,
      "Ġscared": 702,
      "Ġpe": 703,
      "Ġen": 704,
      "Ġsw": 705,
      "Ġbox": 706,
      "Ġknow": 707,
      "oud": 708,
      "Ġsun": 709,
      "ite": 710,
      "av": 711,
      "ited": 712,
      "pl": 713,
      "ment": 714,
      "ause": 715,
      "ff": 716,
      ",\"": 717,
      "Ġdec": 718,
      "Ġinto": 719,
      "Ġlived": 720,
      "pped": 721,
      "Ġim": 722,
      "Ġop": 723,
      "fter": 724,
      "ump": 725,
      "Ġwater": 726,
      "ĠâĢ": 727,
      "Ġlot": 728,
      "ĠG": 729,
      "Ġred": 730,
      "Ġde": 731,
      "Ġgre": 732,
      "Ġpo": 733,
      "ĠMia": 734,
      "uck": 735,
      "Ġlook": 736,
      "ase": 737,
      "Ġsays": 738,
      "ucy": 739,
      "Tim": 740,
      "ven": 741,
      "able": 742,
      "ub": 743,
      "Ġstr": 744,
      "age": 745,
      "Ġgot": 746,
      "Ġcare": 747,
      "Ġtried": 748,
      "Ġbecause": 749,
      "Ġsur": 750,
      "iz": 751,
      "ass": 752,
      "Ġhow": 753,
      "Ġam": 754,
      "Ġshow": 755,
      "Ġad": 756,
      "Ġbest": 757,
      "Ġpic": 758,
      "Ġpret": 759,
      "Ġke": 760,
      "ĠSo": 761,
      "ip": 762,
      "Lily": 763,
      "ild": 764,
      "Ġboth": 765,
      "ank": 766,
      "ways": 767,
      "Ġlong": 768,
      "Ġunder": 769,
      "Ġneed": 770,
      "og": 771,
      "ided": 772,
      "ull": 773,
      "als": 774,
      "Ġbecame": 775,
      "Ġexc": 776,
      "ĠAnd": 777,
      "ough": 778,
      "Ġknew": 779,
      "ear": 780,
      "Ġalways": 781,
      "ich": 782,
      "Ġlearned": 783,
      "act": 784,
      "Ġhug": 785,
      "ĠLucy": 786,
      "his": 787,
      "ber": 788,
      "pr": 789,
      "here": 790,
      "Ġsk": 791,
      "Ġeat": 792,
      "aw": 793,
      "so": 794,
      "Ġoutside": 795,
      "ĠIn": 796,
      "Ġits": 797,
      "Ġbet": 798,
      "Ġroom": 799,
      "igh": 800,
      "pt": 801,
      "udd": 802,
      "Ġho": 803,
      "ary": 804,
      "Ġlaughed": 805,
      "ble": 806,
      "Ġdecided": 807,
      "ft": 808,
      "ink": 809,
      "Ġfeel": 810,
      "Ġmuch": 811,
      "Ġeach": 812,
      "Ġrun": 813,
      "Ġtw": 814,
      "Ġ2": 815,
      "ving": 816,
      "ĠBob": 817,
      "ople": 818,
      "Ġjump": 819,
      "nn": 820,
      "They": 821,
      "Ġimp": 822,
      "Ġdad": 823,
      "Ġfast": 824,
      "ĠMom": 825,
      "âĢĿ": 826,
      "ory": 827,
      "Ġdr": 828,
      "Ġsl": 829,
      "Ġif": 830,
      "Ġqu": 831,
      "urn": 832,
      "ire": 833,
      "Ġover": 834,
      "Ġfo": 835,
      "wn": 836,
      "Ġexcited": 837,
      "Ġhas": 838,
      "Yes": 839,
      "Ġnice": 840,
      "ex": 841,
      "ail": 842,
      "Tom": 843,
      "Ġtold": 844,
      "Ġanim": 845,
      "Ġapp": 846,
      "Ġinside": 847,
      "ated": 848,
      "Ġpeople": 849,
      "ĠK": 850,
      "Ġcr": 851,
      "Ġalso": 852,
      "ĠWe": 853,
      "Ġtake": 854,
      "Ġjust": 855,
      "ions": 856,
      "Ġspec": 857,
      "Ġsurpr": 858,
      "ance": 859,
      "iny": 860,
      "Ġold": 861,
      "Ġcle": 862,
      "Ġlet": 863,
      "Ġpart": 864,
      "Ġhand": 865,
      "Ġpretty": 866,
      "Ġfood": 867,
      "pect": 868,
      "Ġgave": 869,
      "iv": 870,
      "But": 871,
      "ara": 872,
      "ised": 873,
      "ical": 874,
      "orm": 875,
      "orry": 876,
      "oc": 877,
      "nna": 878,
      "lew": 879,
      "Ġcont": 880,
      "ors": 881,
      "ged": 882,
      "ress": 883,
      "ge": 884,
      "ĠâĢľ": 885,
      "other": 886,
      "Ġide": 887,
      "Ġway": 888,
      "ool": 889,
      "Ġlist": 890,
      "Ġeven": 891,
      "Ġte": 892,
      "Ġoff": 893,
      "Ġac": 894,
      "Ġnear": 895,
      "ree": 896,
      "Ġhigh": 897,
      "Ġfish": 898,
      "Ġkind": 899,
      "ans": 900,
      "Ġsorry": 901,
      "00": 902,
      "Ġdis": 903,
      "ower": 904,
      "urt": 905,
      "ount": 906,
      "Ġbetter": 907,
      "Ġend": 908,
      "les": 909,
      "Ġafter": 910,
      "Ġwalk": 911,
      "Ġres": 912,
      "ign": 913,
      "Ġtry": 914,
      "Ġwhich": 915,
      "ĠO": 916,
      "ĠHis": 917,
      "Ġshould": 918,
      "Ġper": 919,
      "Ġbear": 920,
      "Ġcomp": 921,
      "Ġanimals": 922,
      "Ġfr": 923,
      "lf": 924,
      "Ġwalked": 925,
      "od": 926,
      "hank": 927,
      "Ġinc": 928,
      "air": 929,
      "Ġfam": 930,
      "Ġsn": 931,
      "Ġidea": 932,
      "hes": 933,
      "Ġcol": 934,
      "Ġwat": 935,
      "hy": 936,
      "Ġhappened": 937,
      "Ġwork": 938,
      "Ġdidn": 939,
      "ose": 940,
      "Ġgl": 941,
      "vent": 942,
      "Ġdon": 943,
      "Ġbu": 944,
      "ture": 945,
      "Ġuse": 946,
      "Ġrock": 947,
      "irst": 948,
      "ence": 949,
      "Ġcall": 950,
      "Ġsky": 951,
      "Ġche": 952,
      "Ġheard": 953,
      "Ġshare": 954,
      "ĠU": 955,
      "Ġnever": 956,
      "Ġbug": 957,
      "Ġspecial": 958,
      "ix": 959,
      "ream": 960,
      "anc": 961,
      "Ġread": 962,
      "gry": 963,
      "ĠAmy": 964,
      "Ġfore": 965,
      "Ġrem": 966,
      "Ġtal": 967,
      "per": 968,
      "Ġwind": 969,
      "Ġcareful": 970,
      "Ġhard": 971,
      "ren": 972,
      "Ġgreat": 973,
      "Ġour": 974,
      "Ġdif": 975,
      "more": 976,
      "Ġtwo": 977,
      "Ġfly": 978,
      "vel": 979,
      "Ġturn": 980,
      "Mom": 981,
      "iss": 982,
      "Ġfar": 983,
      "Ġsafe": 984,
      "Ġmag": 985,
      "Ġclean": 986,
      "Ġstill": 987,
      "Ġmet": 988,
      "fore": 989,
      "Ġlots": 990,
      "Ġwar": 991,
      "int": 992,
      "aking": 993,
      "Ġflew": 994,
      "Ġanymore": 995,
      "Thank": 996,
      "Ġthr": 997,
      "Ġwr": 998,
      "uff": 999,
      "Ġcome": 1000,
      "ning": 1001,
      "ations": 1002,
      "ient": 1003,
      "oy": 1004,
      "ĠThen": 1005,
      "ĠThis": 1006,
      "Ġnow": 1007,
      "ious": 1008,
      "abb": 1009,
      "ens": 1010,
      "Ġused": 1011,
      "Ġclim": 1012,
      "As": 1013,
      "ĠWhen": 1014,
      "hn": 1015,
      "Ġground": 1016,
      "az": 1017,
      "udden": 1018,
      "Ġbeing": 1019,
      "pected": 1020,
      "gan": 1021,
      "Ġwhere": 1022,
      "Ġbad": 1023,
      "ult": 1024,
      "Ġbeen": 1025,
      "Ġfamily": 1026,
      "arden": 1027,
      "mer": 1028,
      "ord": 1029,
      "ane": 1030,
      "rog": 1031,
      "Ġshiny": 1032,
      "Ġwhile": 1033,
      "Ġgarden": 1034,
      "ons": 1035,
      "ids": 1036,
      "Ġfirst": 1037,
      "rent": 1038,
      "uddenly": 1039,
      "Ġlove": 1040,
      "ĠEvery": 1041,
      "ĠHer": 1042,
      "Ġever": 1043,
      "Ġhurt": 1044,
      "Ġproud": 1045,
      "Ġunt": 1046,
      "Let": 1047,
      "ĠAnna": 1048,
      "Ġcake": 1049,
      "Ġsurprised": 1050,
      "Ġopened": 1051,
      "Ġloud": 1052,
      "ange": 1053,
      "Ġunex": 1054,
      "Ġunexpected": 1055,
      "Ġyear": 1056,
      "Ġstrong": 1057,
      "ĠFrom": 1058,
      "ath": 1059,
      "Ġpicked": 1060,
      "Ġclimb": 1061,
      "Ġblue": 1062,
      "'m": 1063,
      "aut": 1064,
      "Ġplace": 1065,
      "xt": 1066,
      "Ġuntil": 1067,
      "cess": 1068,
      "Ġdoor": 1069,
      "ater": 1070,
      "ished": 1071,
      "Ġthanked": 1072,
      "be": 1073,
      "Ġcalled": 1074,
      "Ġnext": 1075,
      "Ġgive": 1076,
      "Ġhugged": 1077,
      "ummy": 1078,
      "Ġbro": 1079,
      "rel": 1080,
      "Ġdiffe": 1081,
      "Ġbefore": 1082,
      "lease": 1083,
      "Ġonly": 1084,
      "It": 1085,
      "ĠSara": 1086,
      "dy": 1087,
      "ied": 1088,
      "Ġimport": 1089,
      "Ġcu": 1090,
      "Ġstay": 1091,
      "Ġforest": 1092,
      "Ġsto": 1093,
      "Ġchild": 1094,
      "Ġjumped": 1095,
      "ĠCh": 1096,
      "Ġexpl": 1097,
      "Ġsqu": 1098,
      "No": 1099,
      "Ġbeaut": 1100,
      "kay": 1101,
      "self": 1102,
      "Ġkeep": 1103,
      "by": 1104,
      "Ġkids": 1105,
      "Ġstory": 1106,
      "led": 1107,
      "Ġstud": 1108,
      "ĠSt": 1109,
      "llow": 1110,
      "Ġclos": 1111,
      "ched": 1112,
      "Ġmay": 1113,
      "ves": 1114,
      "Ġfrog": 1115,
      "Ġtalk": 1116,
      "Ġboat": 1117,
      "Ġshowed": 1118,
      "Ġbre": 1119,
      "Ġlisten": 1120,
      "Ġrain": 1121,
      "iful": 1122,
      "Ġmor": 1123,
      "Ġhelped": 1124,
      "Ġimportant": 1125,
      "Ġthrough": 1126,
      "Ġrec": 1127,
      "uct": 1128,
      "Ġright": 1129,
      "Ġbeautiful": 1130,
      "Ġtown": 1131,
      "orn": 1132,
      "What": 1133,
      "Ġsu": 1134,
      "Ġ19": 1135,
      "He": 1136,
      "ition": 1137,
      "Ġpicture": 1138,
      "itty": 1139,
      "Ġbel": 1140,
      "Ġnod": 1141,
      "Ġpain": 1142,
      "Ġrel": 1143,
      "Ġsy": 1144,
      "imes": 1145,
      "Ġhappily": 1146,
      "ired": 1147,
      "When": 1148,
      "ents": 1149,
      "Ġfin": 1150,
      "Ġact": 1151,
      "ple": 1152,
      "ian": 1153,
      "Ġopen": 1154,
      "Ġown": 1155,
      "Ġdifferent": 1156,
      "Ġsoft": 1157,
      "Ġmon": 1158,
      "Ġeveryone": 1159,
      "Ġfollow": 1160,
      "Ġgame": 1161,
      "Ġbook": 1162,
      "Ġflow": 1163,
      "Ġbeh": 1164,
      "ma": 1165,
      "ded": 1166,
      "akes": 1167,
      "unny": 1168,
      "Ġlost": 1169,
      "ush": 1170,
      "iver": 1171,
      "Ġinf": 1172,
      "Ġstopped": 1173,
      "Ġwarm": 1174,
      "Ġcry": 1175,
      "alth": 1176,
      "Ġreal": 1177,
      "Ġgreen": 1178,
      "Can": 1179,
      "Ġmagic": 1180,
      "day": 1181,
      "In": 1182,
      "ates": 1183,
      "Ġbed": 1184,
      "oon": 1185,
      "Ġtow": 1186,
      "ms": 1187,
      "We": 1188,
      "olog": 1189,
      "Ġcre": 1190,
      "ĠLet": 1191,
      "Ġwatch": 1192,
      "Ġangry": 1193,
      "ope": 1194,
      "ting": 1195,
      "Ġmost": 1196,
      "Ġdes": 1197,
      "ĠFl": 1198,
      "Ġdoes": 1199,
      "Ġhaving": 1200,
      "Ġyummy": 1201,
      "Ġthese": 1202,
      "uffy": 1203,
      "Ġdoll": 1204,
      "ĠCan": 1205,
      "Ġhat": 1206,
      "Ġmouse": 1207,
      "Ġsoon": 1208,
      ").": 1209,
      "ĠAs": 1210,
      "Ġate": 1211,
      "iet": 1212,
      "Ġfell": 1213,
      "Ġsing": 1214,
      "Ġsat": 1215,
      "Ġgoing": 1216,
      "Ġem": 1217,
      "Ġey": 1218,
      "Ġothers": 1219,
      "Ġcount": 1220,
      "Ġbrave": 1221,
      "ember": 1222,
      "ars": 1223,
      "Ġcouldn": 1224,
      "abbit": 1225,
      "ather": 1226,
      "ady": 1227,
      "me": 1228,
      "ries": 1229,
      "Ġhead": 1230,
      "Ġflowers": 1231,
      "ĠJo": 1232,
      "Ġind": 1233,
      "thing": 1234,
      "red": 1235,
      "ĠSally": 1236,
      "uit": 1237,
      "Ġstick": 1238,
      "Ġcomm": 1239,
      "Ġnoise": 1240,
      "Ġstore": 1241,
      "Ġrabbit": 1242,
      "Ġhands": 1243,
      "ĠKitty": 1244,
      "Ġhere": 1245,
      "illy": 1246,
      "enc": 1247,
      "Ġbirds": 1248,
      "Ġrest": 1249,
      "Ġmean": 1250,
      "Ġjo": 1251,
      "Ġ3": 1252,
      "That": 1253,
      "ond": 1254,
      "der": 1255,
      "Ġcook": 1256,
      "Ġkept": 1257,
      "we": 1258,
      "Ġwell": 1259,
      "Ġtruck": 1260,
      "Ġsuch": 1261,
      "leep": 1262,
      "Ġslide": 1263,
      "irrel": 1264,
      "Ġhole": 1265,
      "ized": 1266,
      "ible": 1267,
      "ĠV": 1268,
      "ative": 1269,
      "Ġsound": 1270,
      "Ġworld": 1271,
      "Ġmaking": 1272,
      "Ġatt": 1273,
      "Then": 1274,
      "Ġthink": 1275,
      "ph": 1276,
      "Ġsquirrel": 1277,
      "Ġrep": 1278,
      "Ġele": 1279,
      "Ġmove": 1280,
      "Ġlooking": 1281,
      "ual": 1282,
      "ular": 1283,
      "itc": 1284,
      "ased": 1285,
      "oup": 1286,
      "Ġsmile": 1287,
      "ins": 1288,
      "Ġnodded": 1289,
      "aper": 1290,
      "Ġtop": 1291,
      "Ġgrow": 1292,
      "arch": 1293,
      "Hi": 1294,
      "ĠNow": 1295,
      "Ġfix": 1296,
      "Ġcatch": 1297,
      "lud": 1298,
      "gr": 1299,
      "Ġless": 1300,
      "Look": 1301,
      "ster": 1302,
      "Ġ-": 1303,
      "Ġyell": 1304,
      "Ġwo": 1305,
      "Ġz": 1306,
      "Ġmess": 1307,
      "ject": 1308,
      "Ġflo": 1309,
      "Ġface": 1310,
      "Ġplant": 1311,
      "ret": 1312,
      "ĠDo": 1313,
      "Ben": 1314,
      "Ġmust": 1315,
      "Ġob": 1316,
      "Ġgen": 1317,
      "Ġwait": 1318,
      "ng": 1319,
      "Ġfav": 1320,
      "Ġpat": 1321,
      "Ġfunny": 1322,
      "Ġfire": 1323,
      "Ġremember": 1324,
      "Ġpull": 1325,
      "ash": 1326,
      "ott": 1327,
      "joy": 1328,
      "ra": 1329,
      "Ġdraw": 1330,
      "Ġset": 1331,
      "Ġpond": 1332,
      "ific": 1333,
      "Ġlight": 1334,
      "Ġanother": 1335,
      "ered": 1336,
      "Ġthing": 1337,
      "ĠFluffy": 1338,
      "Ġant": 1339,
      "ric": 1340,
      "Ġplan": 1341,
      "reed": 1342,
      "Ġeyes": 1343,
      "Ġser": 1344,
      "Ġcold": 1345,
      "Ġyears": 1346,
      "Ġtired": 1347,
      "Ġleav": 1348,
      "ert": 1349,
      "aring": 1350,
      "Ġbunny": 1351,
      "Ġcons": 1352,
      "ating": 1353,
      "Ġsign": 1354,
      "itchen": 1355,
      "Ġdel": 1356,
      "Ġcut": 1357,
      "Ġfull": 1358,
      "chool": 1359,
      "Ġkitchen": 1360,
      "Ġbegan": 1361,
      "Ġsand": 1362,
      "Ġsec": 1363,
      "Ġice": 1364,
      "Ġswe": 1365,
      "gy": 1366,
      "ature": 1367,
      "ee": 1368,
      "Ġunderst": 1369,
      "At": 1370,
      "Ġtell": 1371,
      "Ġ20": 1372,
      "Ġenjoy": 1373,
      "lic": 1374,
      "Ġthree": 1375,
      "Ġsunny": 1376,
      "Ġparty": 1377,
      "man": 1378,
      "Ġflower": 1379,
      "ger": 1380,
      "Ġworked": 1381,
      "Ġsleep": 1382,
      "Ġprom": 1383,
      "Ġshared": 1384,
      "Ġbuild": 1385,
      "Ġperf": 1386,
      "Ġtreat": 1387,
      "oice": 1388,
      "Ġmoral": 1389,
      "Ġland": 1390,
      "Ġmight": 1391,
      "ield": 1392,
      "ities": 1393,
      "Ġdress": 1394,
      "stem": 1395,
      "ello": 1396,
      "Ġmommy": 1397,
      "ib": 1398,
      "Ġcolor": 1399,
      "Ġrace": 1400,
      "rew": 1401,
      "Ġnight": 1402,
      "Ġfavor": 1403,
      "Hello": 1404,
      "velop": 1405,
      "Ġchildren": 1406,
      "Ġpol": 1407,
      "Ġstop": 1408,
      "Ġreg": 1409,
      "Ġinclud": 1410,
      "ĠFin": 1411,
      "Ġtrees": 1412,
      "Ġbag": 1413,
      "Ġhot": 1414,
      "Ġadvent": 1415,
      "ĠJack": 1416,
      "Ġcuri": 1417,
      "ike": 1418,
      "aught": 1419,
      "Ġmat": 1420,
      "Ġtall": 1421,
      "Ġbehind": 1422,
      "Ġpaper": 1423,
      "This": 1424,
      "Ġbus": 1425,
      "ale": 1426,
      "outh": 1427,
      "apped": 1428,
      "Ġsit": 1429,
      "Ġinst": 1430,
      "Ġhid": 1431,
      "Ġeff": 1432,
      "Ġhill": 1433,
      "Ġdir": 1434,
      "Ġdark": 1435,
      "ĠThere": 1436,
      "Ġneeded": 1437,
      "Ġokay": 1438,
      "Ġsupp": 1439,
      "Ġtrain": 1440,
      "Ġfavorite": 1441,
      "ĠAll": 1442,
      "que": 1443,
      "ost": 1444,
      "Ġword": 1445,
      "Don": 1446,
      "Ġwood": 1447,
      "Ġcurious": 1448,
      "ĠUn": 1449,
      "After": 1450,
      "Ġleaves": 1451,
      "amp": 1452,
      "Ġinv": 1453,
      "Ġpers": 1454,
      "Ġair": 1455,
      "ĠThat": 1456,
      "Ġbright": 1457,
      "Ġdri": 1458,
      "ock": 1459,
      "ined": 1460,
      "ier": 1461,
      "Ġyard": 1462,
      "af": 1463,
      "Ġtable": 1464,
      "Ġnum": 1465,
      "Ġagreed": 1466,
      "Ġplease": 1467,
      "Ġgrass": 1468,
      "ational": 1469,
      "Wow": 1470,
      "res": 1471,
      "Ġsong": 1472,
      "Ġhun": 1473,
      "Ġwatched": 1474,
      "Ġhealth": 1475,
      "Ġfloor": 1476,
      "Ġvis": 1477,
      "Ġcolors": 1478,
      "oney": 1479,
      "Ġworry": 1480,
      "ever": 1481,
      "Ġwalking": 1482,
      "Ġname": 1483,
      "lly": 1484,
      "Ġtail": 1485,
      "uring": 1486,
      "Ġask": 1487,
      ".âĢĿ": 1488,
      "Ġsweet": 1489,
      "Ġdisc": 1490,
      "ached": 1491,
      "Ġacc": 1492,
      "rib": 1493,
      "Ġpur": 1494,
      "Ġsurprise": 1495,
      "ken": 1496,
      "Ġph": 1497,
      "Ġbutter": 1498,
      "ner": 1499,
      "Ġturned": 1500,
      "Ġcloser": 1501,
      "Ġrepl": 1502,
      "Ġhold": 1503,
      "Ġtast": 1504,
      "ĠMr": 1505,
      "Ġforg": 1506,
      "aybe": 1507,
      "Ġfruit": 1508,
      "ross": 1509,
      "Ġlaugh": 1510,
      "Ġcars": 1511,
      "less": 1512,
      "Ġdro": 1513,
      "Ġschool": 1514,
      "Ġdevelop": 1515,
      "Ġclose": 1516,
      "Ġvoice": 1517,
      "up": 1518,
      "where": 1519,
      "Ġinter": 1520,
      "Ġpaint": 1521,
      "ont": 1522,
      "ape": 1523,
      "Max": 1524,
      "Why": 1525,
      "Ġprod": 1526,
      "yp": 1527,
      "isy": 1528,
      "Ġshout": 1529,
      "Ġpres": 1530,
      "Ġprov": 1531,
      "Ġpot": 1532,
      "ually": 1533,
      "Ġsame": 1534,
      "ĠDad": 1535,
      "let": 1536,
      "Ġbow": 1537,
      "ards": 1538,
      "ere": 1539,
      "Ġpus": 1540,
      "arent": 1541,
      "Ġsho": 1542,
      "asure": 1543,
      "Ġlady": 1544,
      "Ġwet": 1545,
      "Ġroll": 1546,
      "Ġmus": 1547,
      "Ġpoint": 1548,
      "Ġunderstand": 1549,
      "Ġcontin": 1550,
      "ames": 1551,
      "Ġhair": 1552,
      "ics": 1553,
      "Ġleft": 1554,
      "Ġlar": 1555,
      "Ġdone": 1556,
      "Ġsystem": 1557,
      "Ġfeeling": 1558,
      "kes": 1559,
      "Ġwhy": 1560,
      "Ġcoll": 1561,
      "icy": 1562,
      "ooks": 1563,
      "Ġdist": 1564,
      "Ġpos": 1565,
      "Ġready": 1566,
      "ments": 1567,
      "Ġprot": 1568,
      "Ġcried": 1569,
      "Ġadventure": 1570,
      "ocks": 1571,
      "Ġyellow": 1572,
      "So": 1573,
      "ĠSuddenly": 1574,
      "ĠRe": 1575,
      "Ġfall": 1576,
      "hile": 1577,
      "Ġrunning": 1578,
      "Ġtouch": 1579,
      "Ġste": 1580,
      "oom": 1581,
      "Ġhungry": 1582,
      "cc": 1583,
      "cle": 1584,
      "eter": 1585,
      "Ġexp": 1586,
      "Ġbroken": 1587,
      "Ġmed": 1588,
      "br": 1589,
      "ey": 1590,
      "Ġwall": 1591,
      "Sue": 1592,
      "Ġsure": 1593,
      "Ġpick": 1594,
      "ility": 1595,
      "Sam": 1596,
      "Ġcool": 1597,
      "Ġadd": 1598,
      "Ġfriendly": 1599,
      "bo": 1600,
      "Anna": 1601,
      "),": 1602,
      "Ġquick": 1603,
      "Ġbar": 1604,
      "Ġproble": 1605,
      "Ġsub": 1606,
      "Ġcour": 1607,
      "aby": 1608,
      "Ġhum": 1609,
      "ci": 1610,
      "Ġseen": 1611,
      "Ġfight": 1612,
      "app": 1613,
      "Ġswing": 1614,
      "Ġexam": 1615,
      "Ġdanc": 1616,
      "Ġswim": 1617,
      "ila": 1618,
      "Ġdoing": 1619,
      "ween": 1620,
      "Ġslow": 1621,
      "Ġgone": 1622,
      "Ġgu": 1623,
      "Ġbit": 1624,
      "ĠJane": 1625,
      "Ġgi": 1626,
      "Ġlistened": 1627,
      "Ġpretend": 1628,
      "Ġve": 1629,
      "ĠâĢĵ": 1630,
      "bye": 1631,
      "ness": 1632,
      "Ġlion": 1633,
      "Ġwin": 1634,
      "Ġwonder": 1635,
      "Ġheld": 1636,
      "ident": 1637,
      "anger": 1638,
      "Ġamaz": 1639,
      "She": 1640,
      "Ġpop": 1641,
      "ize": 1642,
      "Ġdance": 1643,
      "Ġsmell": 1644,
      "Ġlife": 1645,
      "ĠY": 1646,
      "Ġhop": 1647,
      "Ġreached": 1648,
      "Ġleg": 1649,
      "aces": 1650,
      "iced": 1651,
      "Ġtri": 1652,
      "Ġwithout": 1653,
      "oun": 1654,
      "Ġent": 1655,
      "Ġgener": 1656,
      "Ġbooks": 1657,
      "Ġclimbed": 1658,
      "Ġfair": 1659,
      "Ġbuy": 1660,
      "Ġhelping": 1661,
      "Ġbetween": 1662,
      "Ġcoming": 1663,
      "ĠBobo": 1664,
      "Ġjob": 1665,
      "Ġmiss": 1666,
      "Ġexplore": 1667,
      "Ġblocks": 1668,
      "Ġsometimes": 1669,
      "Ġtrying": 1670,
      "Ġsees": 1671,
      "Ġdi": 1672,
      "ask": 1673,
      "Ġduck": 1674,
      "ines": 1675,
      "Ġmar": 1676,
      "Ġcream": 1677,
      "Ġpower": 1678,
      "avy": 1679,
      "andma": 1680,
      "Ġel": 1681,
      "Ġmoment": 1682,
      "ĠWhat": 1683,
      "Suddenly": 1684,
      "Ġparent": 1685,
      "ĠAt": 1686,
      "land": 1687,
      "Sara": 1688,
      "Ġwindow": 1689,
      "Ġkey": 1690,
      "room": 1691,
      "ĠAfter": 1692,
      "ution": 1693,
      "ivers": 1694,
      "cept": 1695,
      "Ġref": 1696,
      "ĠTimmy": 1697,
      "Ġglad": 1698,
      "ove": 1699,
      "Ġstand": 1700,
      "Ġbutterf": 1701,
      "med": 1702,
      "Ġbaby": 1703,
      "Ġ200": 1704,
      "row": 1705,
      "ift": 1706,
      "Ġorgan": 1707,
      "ued": 1708,
      "'re": 1709,
      "Ġreach": 1710,
      "Ġmin": 1711,
      "Ġpushed": 1712,
      "Ġgoodbye": 1713,
      "ages": 1714,
      "ister": 1715,
      "Ġwag": 1716,
      "Ġow": 1717,
      "Mia": 1718,
      "Ġhide": 1719,
      "Ġlooks": 1720,
      "ef": 1721,
      "Ġfill": 1722,
      "mb": 1723,
      "ork": 1724,
      "Ġmakes": 1725,
      "Ġhear": 1726,
      "Ġbelie": 1727,
      "ict": 1728,
      "zy": 1729,
      "Ġed": 1730,
      "ead": 1731,
      "Ġhig": 1732,
      "Ġdep": 1733,
      "Ġ201": 1734,
      "ĠBr": 1735,
      "Ġpu": 1736,
      "Ġfur": 1737,
      "Ġpass": 1738,
      "ince": 1739,
      "Ġsnow": 1740,
      "Ġteac": 1741,
      "Ġdin": 1742,
      "str": 1743,
      "ets": 1744,
      "ĠJohn": 1745,
      "Ġcloud": 1746,
      "Ġapple": 1747,
      "Ġwished": 1748,
      "und": 1749,
      "Ġfree": 1750,
      "Ġtrans": 1751,
      "Ġside": 1752,
      "Ġthose": 1753,
      "Ġri": 1754,
      "Ġfield": 1755,
      "Ġwhite": 1756,
      "Ġquickly": 1757,
      "Ġblack": 1758,
      "Ġspl": 1759,
      "Ġincre": 1760,
      "Ġtiny": 1761,
      "ĠIf": 1762,
      "its": 1763,
      "Ġav": 1764,
      "ĠGr": 1765,
      "Ġ4": 1766,
      "used": 1767,
      "ugg": 1768,
      "ully": 1769,
      "\".": 1770,
      "Ġsea": 1771,
      "Ġmouth": 1772,
      "Ġrese": 1773,
      "Ġconf": 1774,
      "Ġstuck": 1775,
      "ĠEveryone": 1776,
      "Ġdream": 1777,
      "ives": 1778,
      "Ġdirty": 1779,
      "Ġchair": 1780,
      "Ġben": 1781,
      "key": 1782,
      "uddy": 1783,
      "ĠZ": 1784,
      "Ġlead": 1785,
      "Ġ5": 1786,
      "Ġmix": 1787,
      "Ġtoday": 1788,
      "Ġfact": 1789,
      "Ġcand": 1790,
      "Ġexper": 1791,
      "aisy": 1792,
      "iron": 1793,
      "Ġdeep": 1794,
      "Ġbrother": 1795,
      "Ġfew": 1796,
      "Ġbreak": 1797,
      "echn": 1798,
      "Ġval": 1799,
      "Ġscary": 1800,
      "Ġpie": 1801,
      "over": 1802,
      "Ġbott": 1803,
      "erv": 1804,
      "Ġsim": 1805,
      "othes": 1806,
      "ider": 1807,
      "Ġreplied": 1808,
      "ology": 1809,
      "Ġanything": 1810,
      "Ġwise": 1811,
      "Ġfarm": 1812,
      "Ġperson": 1813,
      "Ġreally": 1814,
      "Ġwoods": 1815,
      "ton": 1816,
      "Ġear": 1817,
      "rot": 1818,
      "ppy": 1819,
      "Ġtest": 1820,
      "iew": 1821,
      "Ġcast": 1822,
      "Ġsol": 1823,
      "Ġnest": 1824,
      "Ġmusic": 1825,
      "Ġalone": 1826,
      "ctor": 1827,
      "Ġcup": 1828,
      "Ġcap": 1829,
      "ural": 1830,
      "Ġter": 1831,
      "Ġlesson": 1832,
      "ection": 1833,
      "Jo": 1834,
      "ces": 1835,
      "Ġloc": 1836,
      "Ġshouted": 1837,
      "Ġeas": 1838,
      "Ġgames": 1839,
      "Ġfollowed": 1840,
      "Ġwhe": 1841,
      "Ġmod": 1842,
      "io": 1843,
      "Ġremembered": 1844,
      "Ġbutterfly": 1845,
      "Ġbigger": 1846,
      "ĠAl": 1847,
      "Ġheavy": 1848,
      "ices": 1849,
      "ten": 1850,
      "Ġhimself": 1851,
      "hip": 1852,
      "uce": 1853,
      "Ġpract": 1854,
      "Ġwon": 1855,
      "Ġwords": 1856,
      "Ġpink": 1857,
      "Ġthank": 1858,
      "ories": 1859,
      "Ġpulled": 1860,
      "Ġclapped": 1861,
      "ction": 1862,
      "Ġext": 1863,
      "Ġcent": 1864,
      "ĠHow": 1865,
      "ues": 1866,
      "arm": 1867,
      "Ġgroup": 1868,
      "Ġeffect": 1869,
      "Ġnumber": 1870,
      "Ġcolorful": 1871,
      "sy": 1872,
      "ĠLe": 1873,
      "Ġgrabb": 1874,
      "ubb": 1875,
      "Ġenough": 1876,
      "ling": 1877,
      "Ġpatient": 1878,
      "Ġstudy": 1879,
      "Ġowl": 1880,
      "erest": 1881,
      "Ġlarge": 1882,
      "Sp": 1883,
      "fully": 1884,
      "Ġwaved": 1885,
      "Ġstayed": 1886,
      "Oh": 1887,
      "ern": 1888,
      "ormation": 1889,
      "ute": 1890,
      "Ġmil": 1891,
      "Ġbroke": 1892,
      "Ġclothes": 1893,
      "omm": 1894,
      "Okay": 1895,
      "meric": 1896,
      "Ġgent": 1897,
      "Ġass": 1898,
      "Ġart": 1899,
      "ists": 1900,
      "Ġtyp": 1901,
      "Ġpictures": 1902,
      "ata": 1903,
      "Ġhigher": 1904,
      "Ġgrabbed": 1905,
      "Ġquest": 1906,
      "Ġdry": 1907,
      "Ġthin": 1908,
      "cks": 1909,
      "Ġpast": 1910,
      "Ġnoticed": 1911,
      "Ġenjoyed": 1912,
      "rop": 1913,
      "Ġable": 1914,
      "Ġvisit": 1915,
      "Ġret": 1916,
      "ucky": 1917,
      "Ġwrong": 1918,
      "tern": 1919,
      "..": 1920,
      "come": 1921,
      "ipp": 1922,
      "Ġsuc": 1923,
      "Ġwom": 1924,
      "Ġusing": 1925,
      "Ġresult": 1926,
      "Ġwaited": 1927,
      "Ġgift": 1928,
      "Ġnec": 1929,
      "ĠBl": 1930,
      "Ġchange": 1931,
      "ĠTo": 1932,
      "Ġdays": 1933,
      "Ġrequ": 1934,
      "Ġturns": 1935,
      "els": 1936,
      "Ġblew": 1937,
      "Ġparents": 1938,
      "any": 1939,
      "Ġ18": 1940,
      "ants": 1941,
      "ining": 1942,
      "Ġaut": 1943,
      "Ġclass": 1944,
      "Ġsail": 1945,
      "Ġmark": 1946,
      "Ġbrought": 1947,
      "ases": 1948,
      "fort": 1949,
      "Ġlikes": 1950,
      "ator": 1951,
      "Ġheart": 1952,
      "ĠMommy": 1953,
      "Ġspr": 1954,
      "Ġvar": 1955,
      "uction": 1956,
      "Do": 1957,
      "sw": 1958,
      "ze": 1959,
      "Ġsomeone": 1960,
      "itten": 1961,
      "ises": 1962,
      "rap": 1963,
      "ides": 1964,
      "Ġhopped": 1965,
      "ĠEm": 1966,
      "iversity": 1967,
      "Ġspe": 1968,
      "Ġinterest": 1969,
      "Ġtower": 1970,
      "Ġeverywhere": 1971,
      "Ġround": 1972,
      "Her": 1973,
      "Ġtight": 1974,
      "Ġmoney": 1975,
      "ience": 1976,
      "ism": 1977,
      "Ġcourse": 1978,
      "Ġpub": 1979,
      "ained": 1980,
      "to": 1981,
      "ĠAmeric": 1982,
      "Ġbat": 1983,
      "ĠBuddy": 1984,
      "Ġbody": 1985,
      "Ġliving": 1986,
      "Ġprocess": 1987,
      "ement": 1988,
      "ows": 1989,
      "Ġcond": 1990,
      "Ġlast": 1991,
      "Ġdelic": 1992,
      "Ġpartic": 1993,
      "Ġelse": 1994,
      "Lucy": 1995,
      "Ġduring": 1996,
      "Ġform": 1997,
      "Ġriver": 1998,
      "Ġdesign": 1999,
      "com": 2000,
      "Ġride": 2001,
      "oring": 2002,
      "icks": 2003,
      "Ġcur": 2004,
      "Ġyoung": 2005,
      "Ġsour": 2006,
      "ury": 2007,
      "Ġthrew": 2008,
      "Ġleaf": 2009,
      "Ġpar": 2010,
      "Ġenv": 2011,
      "Ġtechn": 2012,
      "ains": 2013,
      "Ġwear": 2014,
      "Ġfaster": 2015,
      "Ġlaw": 2016,
      "Ġcommun": 2017,
      "itting": 2018,
      "Ġswam": 2019,
      "Ġeverything": 2020,
      "Ġsupport": 2021,
      "Ġcover": 2022,
      "gg": 2023,
      "Ġdanger": 2024,
      "ĠDaisy": 2025,
      "Ġoften": 2026,
      "Ġsmart": 2027,
      "ote": 2028,
      "ho": 2029,
      "Ġwants": 2030,
      "ĠAr": 2031,
      "Bob": 2032,
      "zz": 2033,
      "olly": 2034,
      "Ġgetting": 2035,
      "read": 2036,
      "Ġking": 2037,
      "From": 2038,
      "Spot": 2039,
      "Ġeating": 2040,
      "Ġcontinued": 2041,
      "ital": 2042,
      "anch": 2043,
      "Ġansw": 2044,
      "Ġdrink": 2045,
      "ourn": 2046,
      "Ġquiet": 2047,
      "Ġev": 2048,
      "Ġcastle": 2049,
      "Ġes": 2050,
      "Ġtalked": 2051,
      "Ġcir": 2052,
      "Ġforgot": 2053,
      "not": 2054,
      "Ġcookies": 2055,
      "Ġlevel": 2056,
      "Ġsharing": 2057,
      "Ġstudents": 2058,
      "Ġsecret": 2059,
      "Ġperfect": 2060,
      "Ġinformation": 2061,
      "While": 2062,
      "iting": 2063,
      "Ġca": 2064,
      "ĠTh": 2065,
      "âĢľ": 2066,
      "inal": 2067,
      "Ġmonster": 2068,
      "Ġbowl": 2069,
      "Ġhist": 2070,
      "Ġrocks": 2071,
      "Ġhit": 2072,
      "lex": 2073,
      "ically": 2074,
      "eth": 2075,
      "eces": 2076,
      "Ġsmo": 2077,
      "Ġnap": 2078,
      "Ġprin": 2079,
      "Ġdef": 2080,
      "arth": 2081,
      "Ġfox": 2082,
      "Ġteacher": 2083,
      "unt": 2084,
      "Ġbal": 2085,
      "Ġpi": 2086,
      "Ġconc": 2087,
      "John": 2088,
      "Ġchang": 2089,
      "Ġdanced": 2090,
      "ward": 2091,
      "apes": 2092,
      "ĠOn": 2093,
      "Ġbring": 2094,
      "Ġfinished": 2095,
      "Ġroad": 2096,
      "Ġspot": 2097,
      "Ġflying": 2098,
      "Ġanimal": 2099,
      "Ġletter": 2100,
      "Ġmother": 2101,
      "Ġproblem": 2102,
      "ially": 2103,
      "sc": 2104,
      "Ġresp": 2105,
      "Ġhappen": 2106,
      "Ġcell": 2107,
      "Ġsister": 2108,
      "Ġpieces": 2109,
      "Ġnut": 2110,
      "Ġbeach": 2111,
      "Ġcal": 2112,
      "ese": 2113,
      "Ġbranch": 2114,
      "Ġmum": 2115,
      "Ġleave": 2116,
      "ĠNew": 2117,
      "Ġballoon": 2118,
      "ext": 2119,
      "con": 2120,
      "Ġmoved": 2121,
      "Ġrad": 2122,
      "Ġposs": 2123,
      "Ġbecome": 2124,
      "Ġevent": 2125,
      "ĠLila": 2126,
      "unch": 2127,
      "Ġwish": 2128,
      "irt": 2129,
      "Ġfilled": 2130,
      "Ġlater": 2131,
      "Ġjoin": 2132,
      "co": 2133,
      "Ġpig": 2134,
      "ĠFor": 2135,
      "Ġstar": 2136,
      "Ġpresent": 2137,
      "His": 2138,
      "ats": 2139,
      "Ġ6": 2140,
      "elf": 2141,
      "ĠInside": 2142,
      "Ġwel": 2143,
      "Ġlive": 2144,
      ",âĢĿ": 2145,
      "ored": 2146,
      "Ġdinner": 2147,
      "Ġdoctor": 2148,
      "Ġdata": 2149,
      "Ġfil": 2150,
      "Ġcarefully": 2151,
      "Ġsoc": 2152,
      "Ġbike": 2153,
      "Ġhuman": 2154,
      "eddy": 2155,
      "Ġyes": 2156,
      "Ġacross": 2157,
      "Ġegg": 2158,
      "ina": 2159,
      "sel": 2160,
      "Ġris": 2161,
      "Ġsilly": 2162,
      "Ġprotect": 2163,
      "ife": 2164,
      "uss": 2165,
      "Ġcontro": 2166,
      "ĠMaybe": 2167,
      "ract": 2168,
      "idge": 2169,
      "the": 2170,
      "Ġalong": 2171,
      "ery": 2172,
      "ironment": 2173,
      "itive": 2174,
      "irth": 2175,
      "Ġline": 2176,
      "Ġrealized": 2177,
      "ĠSoon": 2178,
      "set": 2179,
      "Ġworried": 2180,
      "Ġpen": 2181,
      "ĠBe": 2182,
      "Ġbee": 2183,
      "Ġdrag": 2184,
      "ude": 2185,
      "Ġbite": 2186,
      "Ġjar": 2187,
      "iness": 2188,
      "Ġpiece": 2189,
      "Ġnet": 2190,
      "itch": 2191,
      "acter": 2192,
      "Ġtem": 2193,
      "ĠTr": 2194,
      "Ġju": 2195,
      "Ġmeet": 2196,
      "Ġdire": 2197,
      "Ġpet": 2198,
      "Ġstep": 2199,
      "Ġorange": 2200,
      "Ġmain": 2201,
      "Ġsnack": 2202,
      "ĠSarah": 2203,
      "gram": 2204,
      "Ġdise": 2205,
      "ately": 2206,
      "Ġdangerous": 2207,
      "Ġactiv": 2208,
      "Ġmud": 2209,
      "una": 2210,
      "Ġsoup": 2211,
      "hys": 2212,
      "ĠInd": 2213,
      "Ġpromised": 2214,
      "Ġorder": 2215,
      "Ġpudd": 2216,
      "Ġbrown": 2217,
      "Just": 2218,
      "Ġamazing": 2219,
      "Ġadv": 2220,
      "Ġresearch": 2221,
      "ergy": 2222,
      "St": 2223,
      "Ġsuccess": 2224,
      "ced": 2225,
      "Ġimpro": 2226,
      "Ġmorning": 2227,
      "Ġeng": 2228,
      "Ġwide": 2229,
      "Ġbelieve": 2230,
      "ones": 2231,
      "Ġprogram": 2232,
      "Ġocc": 2233,
      "Ġsang": 2234,
      "Ġseed": 2235,
      "Ġsmiles": 2236,
      "Ġcannot": 2237,
      "Ġblank": 2238,
      "work": 2239,
      "Ġarri": 2240,
      "ense": 2241,
      "ung": 2242,
      "19": 2243,
      "Ġdiff": 2244,
      "Ġstate": 2245,
      "000": 2246,
      "ĠBilly": 2247,
      "Ġchar": 2248,
      "Ġrob": 2249,
      "ulation": 2250,
      "ek": 2251,
      "Ġself": 2252,
      "Ġclosed": 2253,
      "Ġcrying": 2254,
      "Ġbottle": 2255,
      "Ġmind": 2256,
      "oose": 2257,
      "Ġsitting": 2258,
      "Ġequ": 2259,
      "Maybe": 2260,
      "aced": 2261,
      "ination": 2262,
      "Ġmill": 2263,
      "Ġvill": 2264,
      "ah": 2265,
      "Ġsal": 2266,
      ".,": 2267,
      "Ġtalking": 2268,
      "Ġmot": 2269,
      "Ġins": 2270,
      "Ġmail": 2271,
      "Ġrolled": 2272,
      "Ġcandy": 2273,
      "Ġpri": 2274,
      "pper": 2275,
      "Ġorig": 2276,
      "ama": 2277,
      "iety": 2278,
      "Ġtaking": 2279,
      "Amy": 2280,
      "ps": 2281,
      "Ġbath": 2282,
      "Ġpurple": 2283,
      "Fin": 2284,
      "Ġ10": 2285,
      "board": 2286,
      "rod": 2287,
      "Ġspo": 2288,
      "!âĢĿ": 2289,
      "Ġruns": 2290,
      "Ġoper": 2291,
      "Ġasks": 2292,
      "imi": 2293,
      "Ġshoes": 2294,
      "Ġplants": 2295,
      "Ġworking": 2296,
      "Ġlow": 2297,
      "Ġwelcome": 2298,
      "igg": 2299,
      "Ġlift": 2300,
      "Ġcost": 2301,
      "Ġelect": 2302,
      "Ġtimes": 2303,
      "ĠJoe": 2304,
      "Ġcomes": 2305,
      "Ġstrange": 2306,
      "Ġfit": 2307,
      "Ġnose": 2308,
      "Ġcrab": 2309,
      "Ġbirth": 2310,
      "Ġfinally": 2311,
      "Ġbelong": 2312,
      "vers": 2313,
      "Ġlaughing": 2314,
      "Ġest": 2315,
      "Ġtrou": 2316,
      "ustr": 2317,
      "ency": 2318,
      "Ġcorn": 2319,
      "Ġshop": 2320,
      "Ġowner": 2321,
      "Ġreturn": 2322,
      "Ġwild": 2323,
      "port": 2324,
      "Ġpath": 2325,
      "Ġperform": 2326,
      "||": 2327,
      "arr": 2328,
      "Ġcaught": 2329,
      "icro": 2330,
      "Ġwagged": 2331,
      "Ġthough": 2332,
      "Ġtool": 2333,
      "Ġlate": 2334,
      "Ġbarked": 2335,
      "Ġcarry": 2336,
      "Ġdem": 2337,
      "ason": 2338,
      "20": 2339,
      "Ġfairy": 2340,
      "Ġstone": 2341,
      "angu": 2342,
      "Ġcor": 2343,
      "Ġboun": 2344,
      "Ġcommon": 2345,
      "aly": 2346,
      "Ġsnake": 2347,
      "Ġknown": 2348,
      "Ġlearning": 2349,
      "Ġtowards": 2350,
      "Ġjourn": 2351,
      "aj": 2352,
      "Ġtreasure": 2353,
      "Ġmonkey": 2354,
      "Ġgrandma": 2355,
      "Ġwhole": 2356,
      "vern": 2357,
      "Ġlake": 2358,
      "Ġmeasure": 2359,
      "ivid": 2360,
      "lect": 2361,
      "Ġlone": 2362,
      "ision": 2363,
      "ĠWith": 2364,
      "Ġbask": 2365,
      "Ġenergy": 2366,
      "ĠIs": 2367,
      "Ġallow": 2368,
      "Ġlonely": 2369,
      "Ġstre": 2370,
      "ĠCl": 2371,
      "Ġaff": 2372,
      "'ll": 2373,
      "Ġra": 2374,
      "Ġappro": 2375,
      "Ġinstead": 2376,
      "Ġmach": 2377,
      "Ġtouc": 2378,
      "mat": 2379,
      "Ġmine": 2380,
      "Ġlay": 2381,
      "Ġexample": 2382,
      "Ġwings": 2383,
      "orrow": 2384,
      "arp": 2385,
      "icle": 2386,
      "Ġmilk": 2387,
      "Ġrecord": 2388,
      "Ġprint": 2389,
      "Ġmad": 2390,
      "Ġfour": 2391,
      "Ġ7": 2392,
      "Ġclear": 2393,
      "ball": 2394,
      "Ġshining": 2395,
      "Ġdelicious": 2396,
      "Ġcomplet": 2397,
      "Ġthinks": 2398,
      "Ġhor": 2399,
      "Ġvol": 2400,
      "Ġapples": 2401,
      "Ġshell": 2402,
      "Ġthrow": 2403,
      "ts": 2404,
      "Ġmeans": 2405,
      "aur": 2406,
      "Ġgovern": 2407,
      "Ġpaw": 2408,
      "Ġfarmer": 2409,
      "Ġbutton": 2410,
      "Ġagainst": 2411,
      "âĢĶ": 2412,
      "Ġbuck": 2413,
      "Ġbasket": 2414,
      "sh": 2415,
      "aterial": 2416,
      "erry": 2417,
      "Ġearly": 2418,
      "eared": 2419,
      "Mommy": 2420,
      "Ġpress": 2421,
      "Ġincluding": 2422,
      "Ġmatter": 2423,
      "Ġdeter": 2424,
      "If": 2425,
      "Ġwhist": 2426,
      "Ġdragon": 2427,
      "Ġcase": 2428,
      "ĠUniversity": 2429,
      "Ġkite": 2430,
      "cent": 2431,
      "ĠThese": 2432,
      "rence": 2433,
      "ional": 2434,
      "ium": 2435,
      "itions": 2436,
      "ĠSh": 2437,
      "te": 2438,
      "Ġgentle": 2439,
      "Ġstories": 2440,
      "Ġblanket": 2441,
      "Ġpuddle": 2442,
      "mon": 2443,
      "ality": 2444,
      "Ġspin": 2445,
      "Ġhealthy": 2446,
      "Ġfoot": 2447,
      "Ġlab": 2448,
      "Ġrobot": 2449,
      "Ġhoped": 2450,
      "Ġpush": 2451,
      "Please": 2452,
      "Ġdiffic": 2453,
      "Ġsinging": 2454,
      "ĠAn": 2455,
      "Ġseek": 2456,
      "Ġherself": 2457,
      "Ġreport": 2458,
      "Ġgrew": 2459,
      "Ġarm": 2460,
      "Ġscream": 2461,
      "Ġcow": 2462,
      "Ġshr": 2463,
      "Ġavail": 2464,
      "Ġvillage": 2465,
      "Ġbuilding": 2466,
      "bs": 2467,
      "Ġtasty": 2468,
      "Ġeduc": 2469,
      "Ġcray": 2470,
      "Ġ8": 2471,
      "Ġstorm": 2472,
      "Ġpill": 2473,
      "ella": 2474,
      "Ġteddy": 2475,
      "Ġbush": 2476,
      "Ġplane": 2477,
      "ention": 2478,
      "ĠMimi": 2479,
      "To": 2480,
      "Ġmanag": 2481,
      "Ġenvironment": 2482,
      "ming": 2483,
      "ucks": 2484,
      "Ġdropped": 2485,
      "Ġbi": 2486,
      "Ġnorm": 2487,
      "ĠTommy": 2488,
      "Ġnote": 2489,
      "Ġlonger": 2490,
      "Ġband": 2491,
      "aff": 2492,
      "azy": 2493,
      "ech": 2494,
      "Ġenc": 2495,
      "ither": 2496,
      "ĠBlue": 2497,
      "reat": 2498,
      "Ġmem": 2499,
      "osp": 2500,
      "ĠInt": 2501,
      "ume": 2502,
      "Ġsecond": 2503,
      "Ġwore": 2504,
      "Ġshapes": 2505,
      "reen": 2506,
      "aken": 2507,
      "isa": 2508,
      "lla": 2509,
      "eral": 2510,
      "ique": 2511,
      "Ġeleph": 2512,
      "Ġsounds": 2513,
      "Ġeasy": 2514,
      "ipped": 2515,
      "Ġtakes": 2516,
      "Ġdig": 2517,
      "ected": 2518,
      "Ġswings": 2519,
      "bow": 2520,
      "selves": 2521,
      "Ġpublic": 2522,
      "Ġteam": 2523,
      "Ġproject": 2524,
      "Ġhelpful": 2525,
      "ĠJen": 2526,
      "There": 2527,
      "Ġteach": 2528,
      "Ġce": 2529,
      "Ġmen": 2530,
      "Ġsack": 2531,
      "Ġcomb": 2532,
      "Ġarrived": 2533,
      "Ġmaterial": 2534,
      "ilt": 2535,
      "old": 2536,
      "Ġer": 2537,
      "Ġcomput": 2538,
      "une": 2539,
      "Ġinclude": 2540,
      "cient": 2541,
      "den": 2542,
      "Ġcard": 2543,
      "Ġlangu": 2544,
      "Ġarea": 2545,
      "most": 2546,
      "ĠEng": 2547,
      "Ġlunch": 2548,
      "Ġdisapp": 2549,
      "Ġcarrot": 2550,
      "ertain": 2551,
      "ential": 2552,
      "How": 2553,
      "Ġstreet": 2554,
      "Ġ'": 2555,
      "ensive": 2556,
      "Ġwithin": 2557,
      "Ġdeterm": 2558,
      "Ġhiding": 2559,
      "Ġbread": 2560,
      "Ġet": 2561,
      "aughty": 2562,
      "icked": 2563,
      "ĠDe": 2564,
      "Ġwrite": 2565,
      "Ġnaughty": 2566,
      "Ġrope": 2567,
      "ĠFred": 2568,
      "Ġtwins": 2569,
      "Ġadm": 2570,
      "ables": 2571,
      "Ġneck": 2572,
      "Ġdevelopment": 2573,
      "ĠSome": 2574,
      "line": 2575,
      "Ġobject": 2576,
      "Ġmeth": 2577,
      "conom": 2578,
      "kers": 2579,
      "Ġbeg": 2580,
      "Ġkiss": 2581,
      "Ġstat": 2582,
      "Ġ9": 2583,
      "Ġwonderful": 2584,
      "Ġrece": 2585,
      "lder": 2586,
      "ior": 2587,
      "OK": 2588,
      "par": 2589,
      "ountain": 2590,
      "ocked": 2591,
      "Ġpuppy": 2592,
      "Ġavailable": 2593,
      "Ġdisease": 2594,
      "Ġjoy": 2595,
      "Ġwoke": 2596,
      "Ġcontrol": 2597,
      "Ġjuice": 2598,
      "Ġhuge": 2599,
      "ians": 2600,
      "Ġspace": 2601,
      "Ġimag": 2602,
      "ancy": 2603,
      "Ġindivid": 2604,
      "Ġprovide": 2605,
      "Ġmist": 2606,
      "ours": 2607,
      "10": 2608,
      "Be": 2609,
      "Ġbench": 2610,
      "Ġview": 2611,
      "Ġslowly": 2612,
      "ured": 2613,
      "Ġpromise": 2614,
      "irr": 2615,
      "Ġcheese": 2616,
      "ering": 2617,
      "Ġprevent": 2618,
      "ĠCon": 2619,
      "Ġje": 2620,
      "Ġ199": 2621,
      "Ġcave": 2622,
      "ĠJust": 2623,
      "Ġfeels": 2624,
      "Ġhon": 2625,
      "uggest": 2626,
      "Ġbusy": 2627,
      "de": 2628,
      "ron": 2629,
      "Ġneeds": 2630,
      "Ġdet": 2631,
      "ability": 2632,
      "Ġshook": 2633,
      "stit": 2634,
      "ucture": 2635,
      "Ġpay": 2636,
      "Ġfence": 2637,
      "ization": 2638,
      "Jack": 2639,
      "Ġdepend": 2640,
      "Ġdifficult": 2641,
      "Ġblood": 2642,
      "Ġforever": 2643,
      "Ġtouched": 2644,
      "Ġsharp": 2645,
      "Ġship": 2646,
      "ĠAnn": 2647,
      "ov": 2648,
      "Ġhistory": 2649,
      "llie": 2650,
      "Now": 2651,
      "Ġholding": 2652,
      "Good": 2653,
      "kin": 2654,
      "Ġmicro": 2655,
      "Ġemp": 2656,
      "fortable": 2657,
      "Ġcheered": 2658,
      "fl": 2659,
      "Ġiss": 2660,
      "Ġtrue": 2661,
      "Ġdolls": 2662,
      "ned": 2663,
      "Ġsuggest": 2664,
      "Ġbugs": 2665,
      "Ġrainbow": 2666,
      "Ġprof": 2667,
      "Ġrisk": 2668,
      "ots": 2669,
      "Ġcute": 2670,
      "Ġban": 2671,
      "rill": 2672,
      "Ġproduct": 2673,
      "Ġphys": 2674,
      "Ġshy": 2675,
      "Ġemb": 2676,
      "Ġmoder": 2677,
      "asing": 2678,
      "sp": 2679,
      "Ġfat": 2680,
      "Ġcross": 2681,
      "Ġspark": 2682,
      "cy": 2683,
      "osed": 2684,
      "Ġbirthday": 2685,
      "Ġcoat": 2686,
      "Ġvalue": 2687,
      "umb": 2688,
      "Ġcreate": 2689,
      "Ġinteresting": 2690,
      "Ġ&": 2691,
      "Ġdrive": 2692,
      "ences": 2693,
      "ĠThank": 2694,
      "Ġpeace": 2695,
      "ological": 2696,
      "uced": 2697,
      "Ġbell": 2698,
      "Ġfront": 2699,
      "Ġserv": 2700,
      "Ġcoin": 2701,
      "Ġhoney": 2702,
      "Ġnat": 2703,
      "hiskers": 2704,
      "Ġturt": 2705,
      "Ġfighting": 2706,
      "Ġrespect": 2707,
      "Ġpock": 2708,
      "ĠHowever": 2709,
      "omes": 2710,
      "oof": 2711,
      "rist": 2712,
      "Ġcause": 2713,
      "Ġpile": 2714,
      "Finally": 2715,
      "ograp": 2716,
      "Ġmedic": 2717,
      "Ġpost": 2718,
      "ears": 2719,
      "ental": 2720,
      "Ġshort": 2721,
      "ying": 2722,
      "iod": 2723,
      "ube": 2724,
      "Ġstars": 2725,
      "irp": 2726,
      "Ġballs": 2727,
      "Ġhope": 2728,
      "ording": 2729,
      "ĠRes": 2730,
      "ĠâĢĺ": 2731,
      "Ġpossible": 2732,
      "orth": 2733,
      "ĠAd": 2734,
      "Ġsince": 2735,
      "aps": 2736,
      "Ġcloth": 2737,
      "Ġproblems": 2738,
      "Ġsurf": 2739,
      "Ġsick": 2740,
      "Ġident": 2741,
      "dle": 2742,
      "gly": 2743,
      "Ġstring": 2744,
      "Ġdesc": 2745,
      "Ġmethod": 2746,
      "Ġmid": 2747,
      "Ġcou": 2748,
      "tle": 2749,
      "Ġcountry": 2750,
      "ĠEmma": 2751,
      "arl": 2752,
      "Ġupset": 2753,
      "Ġgives": 2754,
      "ĠAmerican": 2755,
      "Ġfeed": 2756,
      "iter": 2757,
      "Ġmachine": 2758,
      "Ġelephant": 2759,
      "ĠMark": 2760,
      "Ġglow": 2761,
      "bor": 2762,
      "Ġhorse": 2763,
      "Ġways": 2764,
      "Ġnothing": 2765,
      "epend": 2766,
      "Ġproper": 2767,
      "Ġpack": 2768,
      "Ġplaces": 2769,
      "hor": 2770,
      "Ġquestion": 2771,
      "ham": 2772,
      "eng": 2773,
      "ently": 2774,
      "Ġopp": 2775,
      "Ġgas": 2776,
      "Ġforget": 2777,
      "ule": 2778,
      "Ġwomen": 2779,
      "lish": 2780,
      "ĠQ": 2781,
      "Ġtaken": 2782,
      "Ġsever": 2783,
      "Ġobs": 2784,
      "And": 2785,
      "Ġpoor": 2786,
      "ĠPro": 2787,
      "ĠCo": 2788,
      "ajor": 2789,
      "Ġcart": 2790,
      "Ġdirect": 2791,
      "ills": 2792,
      "umpy": 2793,
      "Ġgray": 2794,
      "Ġanswer": 2795,
      "lished": 2796,
      "Ġfollowing": 2797,
      "Ġdiscover": 2798,
      "Ġsave": 2799,
      "Ġnoises": 2800,
      "Ġsold": 2801,
      "Ġtrip": 2802,
      "Ġspread": 2803,
      "Ġcirc": 2804,
      "Ġmagical": 2805,
      "Ġneigh": 2806,
      "Ġkitten": 2807,
      "Of": 2808,
      "Ġugly": 2809,
      "oms": 2810,
      "Ġmoon": 2811,
      "igure": 2812,
      "Ġweak": 2813,
      "ĠMy": 2814,
      "ĠFinally": 2815,
      "Ġamazed": 2816,
      "ified": 2817,
      "Ġbone": 2818,
      "ches": 2819,
      "Ġdirt": 2820,
      "Ġsocial": 2821,
      "ĠRemy": 2822,
      "Ġfing": 2823,
      "Ġprincess": 2824,
      "Ġfeet": 2825,
      "Ġign": 2826,
      "Ġturtle": 2827,
      "Ġmarket": 2828,
      "ĠWhiskers": 2829,
      "Ġfixed": 2830,
      "Ġeconom": 2831,
      "Ġtaste": 2832,
      "Ġdriver": 2833,
      "Ġpuzz": 2834,
      "Ġwave": 2835,
      "Ġsandw": 2836,
      "ĠFr": 2837,
      "erc": 2838,
      "Ġgiven": 2839,
      "Ġparticular": 2840,
      "Ġoccur": 2841,
      "Ġfruits": 2842,
      "cher": 2843,
      "Ġspoon": 2844,
      "ĠJim": 2845,
      "ĠGod": 2846,
      "Ġmyster": 2847,
      "Ġdest": 2848,
      "bers": 2849,
      "Ġrequire": 2850,
      "Ġpan": 2851,
      "Ġcurrent": 2852,
      "Ġnormal": 2853,
      "iding": 2854,
      "Ġcomplete": 2855,
      "ony": 2856,
      "Ġsearch": 2857,
      "Ġwasn": 2858,
      "ugar": 2859,
      "oint": 2860,
      "Ġalmost": 2861,
      "aid": 2862,
      "Ġdogs": 2863,
      "Ġphot": 2864,
      "ogn": 2865,
      "Ġveget": 2866,
      "tt": 2867,
      "Ġpocket": 2868,
      "ĠPe": 2869,
      "astic": 2870,
      "ana": 2871,
      "Sure": 2872,
      "Ġsort": 2873,
      "âĢĵ": 2874,
      "idence": 2875,
      "Ġsplas": 2876,
      "Ġlucky": 2877,
      "Ġur": 2878,
      "Ġsongs": 2879,
      "Ġmodern": 2880,
      "augh": 2881,
      "Ġgiant": 2882,
      "ĠLisa": 2883,
      "Ġlanguage": 2884,
      "ĠCat": 2885,
      "ĠOr": 2886,
      "Ġdrove": 2887,
      "Ġimprove": 2888,
      "Ġcraw": 2889,
      "Ġsmooth": 2890,
      "Ġring": 2891,
      "Ġspicy": 2892,
      "Ġsuddenly": 2893,
      "Ġcookie": 2894,
      "Ġcity": 2895,
      "ware": 2896,
      "Ġquestions": 2897,
      "Ġengine": 2898,
      "ik": 2899,
      "Ġchick": 2900,
      "ĠâĢĶ": 2901,
      "Ġgovernment": 2902,
      "Ġwhistle": 2903,
      "Ġarg": 2904,
      "?âĢĿ": 2905,
      "Ġlog": 2906,
      "Ġplate": 2907,
      "Ġabove": 2908,
      "Ġgoes": 2909,
      "ĠBella": 2910,
      "Ġseveral": 2911,
      "ox": 2912,
      "Ġbas": 2913,
      "ĠPl": 2914,
      "Ġanyone": 2915,
      "Ġtreats": 2916,
      "itional": 2917,
      "adow": 2918,
      "ĠUnited": 2919,
      "ĠDog": 2920,
      "Ġphone": 2921,
      "Ġbenef": 2922,
      "Ġ[": 2923,
      "ĠDr": 2924,
      "Ġdiscuss": 2925,
      "itical": 2926,
      "utes": 2927,
      "ĠEx": 2928,
      "ĠTheir": 2929,
      "ray": 2930,
      "Ġspider": 2931,
      "Ġmajor": 2932,
      "iger": 2933,
      "Ġzoom": 2934,
      "Ġwoman": 2935,
      "__": 2936,
      "ived": 2937,
      "oles": 2938,
      "ted": 2939,
      "Ġinvol": 2940,
      "net": 2941,
      "Ġamong": 2942,
      "light": 2943,
      "aughter": 2944,
      "eg": 2945,
      "Ġhugs": 2946,
      "Ġlegs": 2947,
      "Ġsuff": 2948,
      "pping": 2949,
      "Ġpopular": 2950,
      "Ġskin": 2951,
      "uture": 2952,
      "cer": 2953,
      "Ġteeth": 2954,
      "Ġhidden": 2955,
      "Hey": 2956,
      "Ġrude": 2957,
      "Ġarms": 2958,
      "Ġfeather": 2959,
      "ĠGrandma": 2960,
      "Ġpool": 2961,
      "olf": 2962,
      "ready": 2963,
      "Ġincrease": 2964,
      "unk": 2965,
      "Ġtrave": 2966,
      "omp": 2967,
      "Later": 2968,
      "Ġnon": 2969,
      "uses": 2970,
      "ocol": 2971,
      "Lila": 2972,
      "eed": 2973,
      "ecially": 2974,
      "Ġtea": 2975,
      "ĠMary": 2976,
      "Ġshelf": 2977,
      "Ġlim": 2978,
      "Ġbought": 2979,
      "ĠWhy": 2980,
      "ably": 2981,
      "urch": 2982,
      "Ġgrab": 2983,
      "Ġdev": 2984,
      "ended": 2985,
      "Ġinfl": 2986,
      "Ġconfused": 2987,
      "Ġrare": 2988,
      "Ġbucket": 2989,
      "Ġgather": 2990,
      "Ġthemselves": 2991,
      "Ġonce": 2992,
      "Ġspecific": 2993,
      "Ġbuilt": 2994,
      "Ġsum": 2995,
      "Ġ15": 2996,
      "Ġburn": 2997,
      "ances": 2998,
      "uel": 2999,
      "Ġoven": 3000,
      "Ġpowerful": 3001,
      "Ġoriginal": 3002,
      "Ġperiod": 3003,
      "Ġrich": 3004,
      "oop": 3005,
      "ĠWhile": 3006,
      "inary": 3007,
      "elly": 3008,
      "though": 3009,
      "Ġpractice": 3010,
      "Ġareas": 3011,
      "Ġcertain": 3012,
      "Ġempty": 3013,
      "llo": 3014,
      "Ġstructure": 3015,
      "aining": 3016,
      "Ġscient": 3017,
      "Ġeither": 3018,
      "Ġalready": 3019,
      "ĠChrist": 3020,
      "Ġbrain": 3021,
      "ĠEd": 3022,
      "Ġblock": 3023,
      "Ġitself": 3024,
      "Ġcharacter": 3025,
      "iol": 3026,
      "ison": 3027,
      "Ġpercent": 3028,
      "Ġspray": 3029,
      "Ġpump": 3030,
      "Ġsugar": 3031,
      "Ġhalf": 3032,
      "Ġ.": 3033,
      "Ġdrew": 3034,
      "Ġseat": 3035,
      "Ġwash": 3036,
      "Ġlanded": 3037,
      "box": 3038,
      "view": 3039,
      "ilar": 3040,
      "Ġtrad": 3041,
      "Ġshows": 3042,
      "atic": 3043,
      "Ġonto": 3044,
      "Ġmissed": 3045,
      "Ġbased": 3046,
      "Ġcomputer": 3047,
      "Ġbehav": 3048,
      "Ġglass": 3049,
      "Ġanaly": 3050,
      "Ġspecies": 3051,
      "ĠMany": 3052,
      "pecially": 3053,
      "Ġstret": 3054,
      "Ġseemed": 3055,
      "Ġbark": 3056,
      "Ġtreatment": 3057,
      "ĠLeo": 3058,
      "ĠCome": 3059,
      "Ġunique": 3060,
      "aser": 3061,
      "Ġmessy": 3062,
      "Ġtele": 3063,
      "ground": 3064,
      "Ġtrouble": 3065,
      "lebr": 3066,
      "Ġsignific": 3067,
      "Ġsticks": 3068,
      "Ġfaces": 3069,
      "Ġclouds": 3070,
      "iction": 3071,
      "Ġaccept": 3072,
      "yard": 3073,
      "Ġdaddy": 3074,
      "kn": 3075,
      "Ġtrust": 3076,
      "Ġwatching": 3077,
      "Ġconn": 3078,
      "Ġboss": 3079,
      "Ġscar": 3080,
      "atures": 3081,
      "Ġadventures": 3082,
      "Ġ17": 3083,
      "Ġfear": 3084,
      "ples": 3085,
      "ites": 3086,
      "ĠMar": 3087,
      "Ġinvest": 3088,
      "ĠWill": 3089,
      "Ġclever": 3090,
      "Ġyet": 3091,
      "Ġnatural": 3092,
      "Ġappeared": 3093,
      "ules": 3094,
      "Ġaccess": 3095,
      "Ġmap": 3096,
      "Ġselfish": 3097,
      "Ġshirt": 3098,
      "ateful": 3099,
      "Ġmonth": 3100,
      "Ġsheep": 3101,
      "Ġancient": 3102,
      "Ġsize": 3103,
      "ipe": 3104,
      "ral": 3105,
      "ĠStates": 3106,
      "Ġtwist": 3107,
      "airs": 3108,
      "Ġuseful": 3109,
      "adder": 3110,
      "Ġharm": 3111,
      "ulture": 3112,
      "Ġdaughter": 3113,
      "Ġcelebr": 3114,
      "Ġfive": 3115,
      "Ġmis": 3116,
      "olution": 3117,
      "itter": 3118,
      "Ġtype": 3119,
      "acy": 3120,
      "Ġque": 3121,
      "Ġmaybe": 3122,
      "ĠDon": 3123,
      "iation": 3124,
      "roc": 3125,
      "Ġstepped": 3126,
      "ww": 3127,
      "Ġgold": 3128,
      "Ġjew": 3129,
      "Ġcompet": 3130,
      "gest": 3131,
      "Ġsnowman": 3132,
      "iff": 3133,
      "Ġfoc": 3134,
      "Ġopt": 3135,
      "ief": 3136,
      "Ġserious": 3137,
      "Ġgrumpy": 3138,
      "ĠLuna": 3139,
      "Ġjog": 3140,
      "izz": 3141,
      "Ġespecially": 3142,
      "Ġbeak": 3143,
      "Ġcarried": 3144,
      "Ġcollect": 3145,
      "atter": 3146,
      "ission": 3147,
      "Ġvan": 3148,
      "Ġpour": 3149,
      "ĠMolly": 3150,
      "oons": 3151,
      "Ġgrateful": 3152,
      "ĠNational": 3153,
      "Ġfuture": 3154,
      "ledge": 3155,
      "Ġpin": 3156,
      "Ġearth": 3157,
      "aim": 3158,
      "oid": 3159,
      "Ġrecogn": 3160,
      "Ġchased": 3161,
      "ĠNo": 3162,
      "Ġtrack": 3163,
      "Ġage": 3164,
      "Ġmotor": 3165,
      "Ġsplash": 3166,
      "ometimes": 3167,
      "My": 3168,
      "Ġlevels": 3169,
      "ĠYour": 3170,
      "Ġstri": 3171,
      "resent": 3172,
      "Ġstood": 3173,
      "Ġnature": 3174,
      "ĠCent": 3175,
      "Ġmatch": 3176,
      "cl": 3177,
      "Ġshake": 3178,
      "ĠComm": 3179,
      "Ġesc": 3180,
      "Ġwolf": 3181,
      "Ġindepend": 3182,
      "Ġsleepy": 3183,
      "Ġtax": 3184,
      "Ġsaved": 3185,
      "Ġhelps": 3186,
      "Ġamount": 3187,
      "Ġresour": 3188,
      "Soon": 3189,
      "Ġfinish": 3190,
      "soci": 3191,
      "Ġtie": 3192,
      "Ġpointed": 3193,
      "Ġsym": 3194,
      "iable": 3195,
      "alk": 3196,
      "ubbles": 3197,
      "irpy": 3198,
      "Ġlemon": 3199,
      "izzy": 3200,
      "Ġreading": 3201,
      "Ġwondered": 3202,
      "Ġspoil": 3203,
      "ado": 3204,
      "Ġwaiting": 3205,
      "cean": 3206,
      "Ġess": 3207,
      "Ġducks": 3208,
      "Ġpattern": 3209,
      "Ġdead": 3210,
      "Ġimpact": 3211,
      "Ġoil": 3212,
      "acked": 3213,
      "Ġexperience": 3214,
      "ĠEur": 3215,
      "ration": 3216,
      "Ġsent": 3217,
      "Ġbase": 3218,
      "phone": 3219,
      "uth": 3220,
      "Ġflag": 3221,
      "andy": 3222,
      "Ġexpensive": 3223,
      "Ġtid": 3224,
      "Ġassoci": 3225,
      "Ġjelly": 3226,
      "Ġsmelly": 3227,
      "Ġyog": 3228,
      "Ġmodel": 3229,
      "Ġfine": 3230,
      "Ġ12": 3231,
      "Ġfamous": 3232,
      "Ġvide": 3233,
      "Ġputs": 3234,
      "Ġregular": 3235,
      "Ġprep": 3236,
      "Ġpuzzle": 3237,
      "Ġisland": 3238,
      "Ġcop": 3239,
      "Ġbackyard": 3240,
      "oday": 3241,
      "Ġcalm": 3242,
      "known": 3243,
      "Ġcreative": 3244,
      "arrass": 3245,
      "Ġill": 3246,
      "Ġwrote": 3247,
      "Ġmult": 3248,
      "Al": 3249,
      "Ġusually": 3250,
      "Ġconsider": 3251,
      "Ġsmaller": 3252,
      "Ġlocal": 3253,
      "sis": 3254,
      "oss": 3255,
      "Ġfigure": 3256,
      "Ġsil": 3257,
      "ument": 3258,
      "Ġsmelled": 3259,
      "Ġsell": 3260,
      "Ġembarrass": 3261,
      "Ġsaf": 3262,
      "Ġwing": 3263,
      "Ġdish": 3264,
      "Ġlock": 3265,
      "Ġaf": 3266,
      "Ġdam": 3267,
      "Ġspeed": 3268,
      "Ġcamp": 3269,
      "ĠPh": 3270,
      "osaur": 3271,
      "Ġinstr": 3272,
      "Ġrecomm": 3273,
      "Ġfurther": 3274,
      "Ġworks": 3275,
      "ression": 3276,
      "Ġzoo": 3277,
      "nam": 3278,
      "Ġfancy": 3279,
      "Ġsystems": 3280,
      "Ġhonest": 3281,
      "erve": 3282,
      "ĠTV": 3283,
      "Come": 3284,
      "Ġ16": 3285,
      "Ġindust": 3286,
      "bon": 3287,
      "Ġkid": 3288,
      "Ġnearby": 3289,
      "ĠJill": 3290,
      "ĠGe": 3291,
      "ging": 3292,
      "Ġsoil": 3293,
      "Ġthick": 3294,
      "ploy": 3295,
      "Ġsuper": 3296,
      "Ġmass": 3297,
      "ceed": 3298,
      "Ġdue": 3299,
      "Ġlikely": 3300,
      "Ġladder": 3301,
      "Ġpray": 3302,
      "ĠJerry": 3303,
      "dom": 3304,
      "Ġled": 3305,
      "Ġyourself": 3306,
      "Ġsepar": 3307,
      "Ġnecess": 3308,
      "form": 3309,
      "Ġfa": 3310,
      "Ġsignificant": 3311,
      "Ġtemper": 3312,
      "ĠPlease": 3313,
      "ervous": 3314,
      "Ġqueen": 3315,
      "Ġcrayons": 3316,
      "Ġants": 3317,
      "Ġcells": 3318,
      "Ġhang": 3319,
      "Ġdeath": 3320,
      "Ġcommunity": 3321,
      "Ġrespons": 3322,
      "ram": 3323,
      "raid": 3324,
      "Ġones": 3325,
      "ĠChirpy": 3326,
      "Ġunl": 3327,
      "Ġhours": 3328,
      "orld": 3329,
      "Ġfake": 3330,
      "Ġtom": 3331,
      "Ġrub": 3332,
      "Ġbegin": 3333,
      "Ġnervous": 3334,
      "Ġcompl": 3335,
      "Ġgently": 3336,
      "Ġboard": 3337,
      "Ġrough": 3338,
      "Ġmoving": 3339,
      "Ġeggs": 3340,
      "Ġjourney": 3341,
      "ĠSc": 3342,
      "ody": 3343,
      "ieved": 3344,
      "Ġmole": 3345,
      "vious": 3346,
      "Ġsuccessful": 3347,
      "Ġswimming": 3348,
      "Ġrat": 3349,
      "Ġviol": 3350,
      "Ġbelow": 3351,
      "aches": 3352,
      "por": 3353,
      "Ġchew": 3354,
      "Ġmiddle": 3355,
      "Ġsquare": 3356,
      "Ġafraid": 3357,
      "Ġcouch": 3358,
      "ĠBu": 3359,
      "Ġtaught": 3360,
      "Ch": 3361,
      "Ġbalance": 3362,
      "ĠDoggy": 3363,
      "ĠEurope": 3364,
      "Ġport": 3365,
      "Ġworm": 3366,
      "Ġchoose": 3367,
      "...": 3368,
      "Ġresults": 3369,
      "Ġgun": 3370,
      "Ġwearing": 3371,
      "Ġencour": 3372,
      "Ġlose": 3373,
      "Ġcozy": 3374,
      "12": 3375,
      "Ġhero": 3376,
      "Ġstage": 3377,
      "ler": 3378,
      "Ġeducation": 3379,
      "ript": 3380,
      "Ġeffective": 3381,
      "Ġtidy": 3382,
      "Ġintrod": 3383,
      "Ġimpress": 3384,
      "Ġnumbers": 3385,
      "Ġbill": 3386,
      "Ġdeer": 3387,
      "ĠOllie": 3388,
      "obal": 3389,
      "Ġfinding": 3390,
      "Ġchall": 3391,
      "ĠDaddy": 3392,
      "Ġap": 3393,
      "Ġmixed": 3394,
      "Ġtomorrow": 3395,
      "Ġimm": 3396,
      "Ġforgive": 3397,
      "Ġauthor": 3398,
      "irit": 3399,
      "Ġcancer": 3400,
      "Ġweek": 3401,
      "Ġgrand": 3402,
      "Ġlower": 3403,
      "Ġdrum": 3404,
      "ival": 3405,
      "Ġprop": 3406,
      "Ġfunction": 3407,
      "ators": 3408,
      "Ġcovered": 3409,
      "Ġmirr": 3410,
      "Ġorganized": 3411,
      "Ġtechnology": 3412,
      "ĠBrit": 3413,
      "Ġsimilar": 3414,
      "ify": 3415,
      "Ġbossy": 3416,
      "Ġchanged": 3417,
      "Ġpillow": 3418,
      "18": 3419,
      "Ġparts": 3420,
      "ĠBunny": 3421,
      "Ġkick": 3422,
      "Ġjumping": 3423,
      "gen": 3424,
      "Ġbrush": 3425,
      "ses": 3426,
      "Ġbridge": 3427,
      "Ġcentury": 3428,
      "ager": 3429,
      "Ġhous": 3430,
      "Ġhowever": 3431,
      "Ġsandwich": 3432,
      "can": 3433,
      "Ġspent": 3434,
      "ptoms": 3435,
      "Ġdrawing": 3436,
      "chers": 3437,
      "urb": 3438,
      "Ġwealth": 3439,
      "Ġrocket": 3440,
      "Ġchanges": 3441,
      "ters": 3442,
      "unn": 3443,
      "Ġcountries": 3444,
      "Ġjud": 3445,
      "Ġconditions": 3446,
      "ĠBird": 3447,
      "bit": 3448,
      "Ġwhale": 3449,
      "Ġskills": 3450,
      "Ġcleaned": 3451,
      "Ġleast": 3452,
      "Ġpopulation": 3453,
      "ures": 3454,
      "à¤": 3455,
      "ocolate": 3456,
      "Ġloves": 3457,
      "Ġcircle": 3458,
      "ising": 3459,
      "Ġlovely": 3460,
      "Ġmillion": 3461,
      "ĠPr": 3462,
      "Ġwis": 3463,
      "Ġdinosaur": 3464,
      "Ġknowledge": 3465,
      "Ġla": 3466,
      "tain": 3467,
      "Ġscarf": 3468,
      "Ġresist": 3469,
      "aven": 3470,
      "Ġang": 3471,
      "Ġtape": 3472,
      "Ġtent": 3473,
      "Ġintell": 3474,
      "ĠAf": 3475,
      "hin": 3476,
      "ym": 3477,
      "ication": 3478,
      "Ġreason": 3479,
      "ges": 3480,
      "Ġsnee": 3481,
      "ĠMomo": 3482,
      "Ġspeak": 3483,
      "Ġ$": 3484,
      "Ġspring": 3485,
      "aged": 3486,
      "Ġjewel": 3487,
      "Ġincred": 3488,
      "ĠEven": 3489,
      "Ġpolice": 3490,
      "mic": 3491,
      "Ġ0": 3492,
      "illed": 3493,
      "Ġber": 3494,
      "Ġdecor": 3495,
      "Ġbusiness": 3496,
      "ĠTogether": 3497,
      "For": 3498,
      "uation": 3499,
      "ilities": 3500,
      "Ġpretended": 3501,
      "Ġtries": 3502,
      "Ġpainted": 3503,
      "oomy": 3504,
      "Ġestab": 3505,
      "Ġmedicine": 3506,
      "Ġmirror": 3507,
      "Ġexist": 3508,
      "iant": 3509,
      "Ġprofess": 3510,
      "ann": 3511,
      "Ġgeneral": 3512,
      "echan": 3513,
      "stead": 3514,
      "Ġspend": 3515,
      "ĠSometimes": 3516,
      "Ġsplashed": 3517,
      "Ġwaves": 3518,
      "Ġfold": 3519,
      "Ġadded": 3520,
      "Ġfurry": 3521,
      "Ġlazy": 3522,
      "elp": 3523,
      "Ġoffic": 3524,
      "Ġmysterious": 3525,
      "Ġtools": 3526,
      "Ġclown": 3527,
      "Ġcrown": 3528,
      "Ġsens": 3529,
      "ays": 3530,
      "ĠEn": 3531,
      "Ġcam": 3532,
      "Ġprob": 3533,
      "Here": 3534,
      "Ġchocolate": 3535,
      "Ġrelations": 3536,
      "now": 3537,
      "ety": 3538,
      "Ġberries": 3539,
      "Ġelder": 3540,
      "Ġfac": 3541,
      "Ġwand": 3542,
      "met": 3543,
      "Ġcheer": 3544,
      "Ġscreamed": 3545,
      "Ġpizz": 3546,
      "Ġach": 3547,
      "Ġresear": 3548,
      "Ġbatter": 3549,
      "ĠEarth": 3550,
      "Ġscale": 3551,
      "Ġhy": 3552,
      "lement": 3553,
      "Ġvac": 3554,
      "Ġseeds": 3555,
      "ĠBy": 3556,
      "pa": 3557,
      "Ġsmiling": 3558,
      "Ġunknown": 3559,
      "for": 3560,
      "icket": 3561,
      "hamed": 3562,
      "ĠPo": 3563,
      "Ġvegetables": 3564,
      "era": 3565,
      "ĠUS": 3566,
      "Ġunderstood": 3567,
      "Ġpatients": 3568,
      "Kitty": 3569,
      "Sally": 3570,
      "Ġindividual": 3571,
      "Ġstir": 3572,
      "50": 3573,
      "Ġunus": 3574,
      "Ġexerc": 3575,
      "Ġknee": 3576,
      "val": 3577,
      "Ġwouldn": 3578,
      "Ġflex": 3579,
      "anches": 3580,
      "Ġmarch": 3581,
      "Ġweight": 3582,
      "aster": 3583,
      "Ġnoisy": 3584,
      "Ġvarious": 3585,
      "Ġchest": 3586,
      "ato": 3587,
      "Ġfrag": 3588,
      "orts": 3589,
      "Ġhello": 3590,
      "ĠMed": 3591,
      "Ġindependent": 3592,
      "Ġhur": 3593,
      "Ġscreen": 3594,
      "Ġheat": 3595,
      "Ġashamed": 3596,
      "Ġanx": 3597,
      "Ġshape": 3598,
      "Ġwhis": 3599,
      "Ġcreated": 3600,
      "abin": 3601,
      "Ġaccount": 3602,
      "Ġgets": 3603,
      "yal": 3604,
      "Ġapplic": 3605,
      "Ġcheck": 3606,
      "itation": 3607,
      "utions": 3608,
      "Ġdestro": 3609,
      "Ġelderly": 3610,
      "Ġcorner": 3611,
      "Ġbranches": 3612,
      "atory": 3613,
      "Ġocean": 3614,
      "Ġpizza": 3615,
      "Ġsque": 3616,
      "Ġtor": 3617,
      "Ġpolite": 3618,
      "Ġdispl": 3619,
      "Ġord": 3620,
      "Ġweird": 3621,
      "Ġlives": 3622,
      "Ġcases": 3623,
      "Ġscience": 3624,
      "useum": 3625,
      "Ġdrank": 3626,
      "ands": 3627,
      "Ġminutes": 3628,
      "Ġbald": 3629,
      "Ġunderstanding": 3630,
      "Ġboring": 3631,
      "Ġmelt": 3632,
      "Ġsubject": 3633,
      "Ġdoesn": 3634,
      "Ġtypes": 3635,
      "Ġlamp": 3636,
      "Ġeye": 3637,
      "Ġfund": 3638,
      "Ġbounce": 3639,
      "Ġveh": 3640,
      "Ġsend": 3641,
      "Ġactivities": 3642,
      "Ġemploy": 3643,
      "Ġballoons": 3644,
      "Help": 3645,
      "Ġstudies": 3646,
      "requ": 3647,
      "Ġmountain": 3648,
      "Ġru": 3649,
      "Ġprince": 3650,
      "Ġgate": 3651,
      "Ġfis": 3652,
      "ĠBrown": 3653,
      "ustrated": 3654,
      "Ġwheel": 3655,
      "Re": 3656,
      "Ġunusual": 3657,
      "imp": 3658,
      "ortun": 3659,
      "Ġeffects": 3660,
      "nic": 3661,
      "Ġrather": 3662,
      "Ġrepresent": 3663,
      "11": 3664,
      "Ġattract": 3665,
      "mber": 3666,
      "ĠAb": 3667,
      "Ġpassed": 3668,
      "ugh": 3669,
      "Ġgiving": 3670,
      "icient": 3671,
      "Ġcats": 3672,
      "ails": 3673,
      "Ġterm": 3674,
      "Stop": 3675,
      "ĠEnglish": 3676,
      "Ġincredible": 3677,
      "Ġloss": 3678,
      "Ġsymptoms": 3679,
      "Ġexplained": 3680,
      "Ġbottom": 3681,
      "Ġremind": 3682,
      "Where": 3683,
      "Ġtells": 3684,
      "Ġsolve": 3685,
      "sect": 3686,
      "sing": 3687,
      "Ġsoap": 3688,
      "Ġjoke": 3689,
      "Ġfinger": 3690,
      "Ġcy": 3691,
      "istic": 3692,
      "Ġ30": 3693,
      "Ġactivity": 3694,
      "Ġdancing": 3695,
      "ĠRep": 3696,
      "Ġoffice": 3697,
      "bled": 3698,
      "Ġbreath": 3699,
      "iam": 3700,
      "Ġham": 3701,
      "oph": 3702,
      "Ġconstr": 3703,
      "Ġknowing": 3704,
      "Ġvideo": 3705,
      "Ġcomfortable": 3706,
      "Ġsite": 3707,
      "Ġmechan": 3708,
      "Ġgenerous": 3709,
      "Ġcontent": 3710,
      "erp": 3711,
      "atch": 3712,
      "ĠInstead": 3713,
      "Ġyelled": 3714,
      "Ġjoined": 3715,
      "ache": 3716,
      "encil": 3717,
      "Ġgar": 3718,
      "Ġembarrassed": 3719,
      "Ġmel": 3720,
      "oot": 3721,
      "Ġwire": 3722,
      "Ġtext": 3723,
      "Ġjam": 3724,
      "Ġsimple": 3725,
      "NA": 3726,
      "Ġdizzy": 3727,
      "ĠBear": 3728,
      "Ġwhether": 3729,
      "ĠGen": 3730,
      "Ġphysical": 3731,
      "Ġicy": 3732,
      "Ġstream": 3733,
      "Ġradio": 3734,
      "ference": 3735,
      "Ġgrowing": 3736,
      "Ġpeaceful": 3737,
      "Ġdrug": 3738,
      "ĠTiny": 3739,
      "ney": 3740,
      "ĠBobby": 3741,
      "Ġchicken": 3742,
      "Ġann": 3743,
      "Ġforward": 3744,
      "gn": 3745,
      "Ġpumpkin": 3746,
      "ĠRob": 3747,
      "Ġintern": 3748,
      "ĠGo": 3749,
      "Ġneg": 3750,
      "Ġmov": 3751,
      "Ġplanet": 3752,
      "Ġthinking": 3753,
      "ĠWorld": 3754,
      "ĠAfric": 3755,
      "Ġsix": 3756,
      "Ġpage": 3757,
      "Ġeager": 3758,
      "Ġclay": 3759,
      "Ġtravel": 3760,
      "Ġneighbor": 3761,
      "Ġprim": 3762,
      "Ġload": 3763,
      "ibility": 3764,
      "istent": 3765,
      "Ġpred": 3766,
      "alous": 3767,
      "Ġexploring": 3768,
      "Ġperm": 3769,
      "ĠSy": 3770,
      "Ġchase": 3771,
      "Ġpencil": 3772,
      "Ġguess": 3773,
      "Ġevidence": 3774,
      "Th": 3775,
      "Ġ198": 3776,
      "Ġinflu": 3777,
      "Ġsword": 3778,
      "Ġdeliver": 3779,
      "Ġvase": 3780,
      "Ġabs": 3781,
      "Ġcoo": 3782,
      "reng": 3783,
      "ultural": 3784,
      "Ġsurface": 3785,
      "Ġterri": 3786,
      "issors": 3787,
      "Ġasking": 3788,
      "ĠBenny": 3789,
      "ĠIntern": 3790,
      "Ġgroups": 3791,
      "Ġlibr": 3792,
      "Ġsingle": 3793,
      "Ġclock": 3794,
      "ae": 3795,
      "apping": 3796,
      "Ġeventually": 3797,
      "ospital": 3798,
      "rit": 3799,
      "ecause": 3800,
      "Ġfather": 3801,
      "book": 3802,
      "Ġemer": 3803,
      "ĠCal": 3804,
      "king": 3805,
      "Me": 3806,
      "ĠGer": 3807,
      "Ġappl": 3808,
      "Ġtasted": 3809,
      "Ġtruth": 3810,
      "Ġappear": 3811,
      "enn": 3812,
      "Ġsource": 3813,
      "Ġaffect": 3814,
      "Ġcabin": 3815,
      "ĠHere": 3816,
      "ĠAm": 3817,
      "Ġstraw": 3818,
      "Ġdeveloped": 3819,
      "Ġhunt": 3820,
      "By": 3821,
      "ĠMay": 3822,
      "agn": 3823,
      "Ġquality": 3824,
      "Ġfright": 3825,
      "Every": 3826,
      "Ġheal": 3827,
      "30": 3828,
      "Ġfool": 3829,
      "Ġmeant": 3830,
      "osis": 3831,
      "Ġdestroy": 3832,
      "Ġtough": 3833,
      "Ġglue": 3834,
      "Ġgigg": 3835,
      "Ġjealous": 3836,
      "hood": 3837,
      "Ġrole": 3838,
      "Ġhouses": 3839,
      "Ġblow": 3840,
      "ification": 3841,
      "Ġstuff": 3842,
      "Ġsear": 3843,
      "Ġmighty": 3844,
      "Ġaddition": 3845,
      "Ġactually": 3846,
      "Ġbake": 3847,
      "medi": 3848,
      "shine": 3849,
      "Ġhorn": 3850,
      "Ġpow": 3851,
      "sequ": 3852,
      "Ġaddress": 3853,
      "Ġ14": 3854,
      "ighed": 3855,
      "Ġstanding": 3856,
      "Ġadult": 3857,
      "uary": 3858,
      "Ġescape": 3859,
      "Ġresources": 3860,
      "Ġtooth": 3861,
      "Ġpil": 3862,
      "Ġcage": 3863,
      "Ġrelax": 3864,
      "Ġrange": 3865,
      "Ġpal": 3866,
      "Ġdiam": 3867,
      "ĠIm": 3868,
      "Ġgrowth": 3869,
      "Ġscissors": 3870,
      "Ġsuit": 3871,
      "son": 3872,
      "Ġrose": 3873,
      "Ġchurch": 3874,
      "Ġquar": 3875,
      "Ġfamil": 3876,
      "An": 3877,
      "ĠAss": 3878,
      "Ġrelig": 3879,
      "Ġstubb": 3880,
      "berry": 3881,
      "earch": 3882,
      "Ġsteps": 3883,
      "ormous": 3884,
      "Ġpainting": 3885,
      "Ġwriting": 3886,
      "Ġspirit": 3887,
      "Ġbarn": 3888,
      "Ġintellig": 3889,
      "time": 3890,
      "Ġmeat": 3891,
      "Ġpicnic": 3892,
      "Ġstress": 3893,
      "Ġshore": 3894,
      "Ġsense": 3895,
      "head": 3896,
      "Ġson": 3897,
      "robe": 3898,
      "ublic": 3899,
      "Ġscare": 3900,
      "Ġreduce": 3901,
      "Ġknocked": 3902,
      "verse": 3903,
      "ales": 3904,
      "Dad": 3905,
      "yle": 3906,
      "Ġcere": 3907,
      "rect": 3908,
      "Ġrepe": 3909,
      "Ġenormous": 3910,
      "Ġrot": 3911,
      "Ġending": 3912,
      "ades": 3913,
      "Ġbloom": 3914,
      "Ġpotential": 3915,
      "Ġautom": 3916,
      "Ġstubborn": 3917,
      "ĠSe": 3918,
      "lo": 3919,
      "Ġproducts": 3920,
      "Ġcloset": 3921,
      "arsh": 3922,
      "Ġflexible": 3923,
      "ierce": 3924,
      "ograph": 3925,
      "Ġshark": 3926,
      "Ġscr": 3927,
      "ĠDucky": 3928,
      "Ġshadow": 3929,
      "Ġwaste": 3930,
      "Ġyarn": 3931,
      "Ġrele": 3932,
      "Ġrelieved": 3933,
      "Ġproduction": 3934,
      "Ġfuel": 3935,
      "ĠSci": 3936,
      "Ġstreng": 3937,
      "Ġgoat": 3938,
      "Ġaccording": 3939,
      "reme": 3940,
      "Ġsunshine": 3941,
      "Ġframe": 3942,
      "Ġfrustrated": 3943,
      "Ġallowed": 3944,
      "Ġrate": 3945,
      "ips": 3946,
      "Tommy": 3947,
      "aul": 3948,
      "Ġelev": 3949,
      "arian": 3950,
      "Ġcone": 3951,
      "Ġconsid": 3952,
      "Ġmaterials": 3953,
      "Ġincreased": 3954,
      "Ġmemb": 3955,
      "//": 3956,
      "Ġmoms": 3957,
      "Ġmembers": 3958,
      "Ġexciting": 3959,
      "uly": 3960,
      "Ġentire": 3961,
      "Ġreturned": 3962,
      "ring": 3963,
      "Ġhomes": 3964,
      "Ġens": 3965,
      "Ġcontrib": 3966,
      "Ġmagnet": 3967,
      "izing": 3968,
      "fact": 3969,
      "Ġaer": 3970,
      "Ġtot": 3971,
      "Ġtowel": 3972,
      "gu": 3973,
      "Ġkicked": 3974,
      "mbol": 3975,
      "Ġdull": 3976,
      "Ġrise": 3977,
      "Ġparticip": 3978,
      "Ġflu": 3979,
      "Ġhears": 3980,
      "Ġsock": 3981,
      "asc": 3982,
      "Ġten": 3983,
      "ĠWar": 3984,
      "Ġfoolish": 3985,
      "Ġattention": 3986,
      "Ġdug": 3987,
      "otted": 3988,
      "Ġrelationship": 3989,
      "Ġseem": 3990,
      "Ġstaff": 3991,
      "Ġjournal": 3992,
      "uals": 3993,
      "Ġwealthy": 3994,
      "Ġreve": 3995,
      "Ġindic": 3996,
      "ĠStud": 3997,
      "fer": 3998,
      "Ġwhisper": 3999,
      "Ġclum": 4000,
      "Ġsearched": 4001,
      "ĠCol": 4002,
      "Ġnur": 4003,
      "Ġpepper": 4004,
      "Ġfrightened": 4005,
      "Ġtrick": 4006,
      "reek": 4007,
      "Ġdough": 4008,
      "Ġnuts": 4009,
      "ĠMan": 4010,
      "ĠX": 4011,
      "Ġgum": 4012,
      "Ġloyal": 4013,
      "iple": 4014,
      "Ġresearchers": 4015,
      "Ġinsect": 4016,
      "usting": 4017,
      "mato": 4018,
      "Ġpoints": 4019,
      "sych": 4020,
      "thy": 4021,
      "Ġideas": 4022,
      "put": 4023,
      "Ġbitter": 4024,
      "Ġfierce": 4025,
      "Ġtomato": 4026,
      "Ġstudent": 4027,
      "Who": 4028,
      "Ġarticle": 4029,
      "Ġwagon": 4030,
      "Ġfragile": 4031,
      "Ġvir": 4032,
      "Ġmetal": 4033,
      "Ġclimate": 4034,
      "15": 4035,
      "Ġdiscovered": 4036,
      "ĠKing": 4037,
      "Ġclumsy": 4038,
      "Ġcrack": 4039,
      "Ġeasily": 4040,
      "Ġmanagement": 4041,
      "Ġbubbles": 4042,
      "Ġwake": 4043,
      "Ġhose": 4044,
      "Ġcheap": 4045,
      "inc": 4046,
      "Ġwashed": 4047,
      "Ġhel": 4048,
      "apt": 4049,
      "Ġstrugg": 4050,
      "ĠSouth": 4051,
      "ĠNorth": 4052,
      "Ġwrap": 4053,
      "Ġability": 4054,
      "Ġcomplex": 4055,
      "Ġwinter": 4056,
      "Ġmeal": 4057,
      "Ġissues": 4058,
      "Ġspoiled": 4059,
      "16": 4060,
      "ĠToday": 4061,
      "Ġpir": 4062,
      "ĠYork": 4063,
      "ĠPeople": 4064,
      "Ġsupply": 4065,
      "Ġexperi": 4066,
      "ha": 4067,
      "ĠHealth": 4068,
      "Ġopportun": 4069,
      "ulations": 4070,
      "Ġdetermined": 4071,
      "Ġterrible": 4072,
      "Ġbrill": 4073,
      "opl": 4074,
      "Ġflash": 4075,
      "Ġple": 4076,
      "ept": 4077,
      "Ġpurp": 4078,
      "Ġtrade": 4079,
      "Ġnational": 4080,
      "Ġinit": 4081,
      "://": 4082,
      "ein": 4083,
      "Ġox": 4084,
      "Ġexpect": 4085,
      "ivity": 4086,
      "ems": 4087,
      "Ġsalad": 4088,
      "Ġreliable": 4089,
      "17": 4090,
      "Ġfail": 4091,
      "Ġrules": 4092,
      "Ġgoose": 4093,
      "of": 4094,
      "Ġdiv": 4095,
      "Ġumb": 4096,
      "Ġrights": 4097,
      "Ġmistake": 4098,
      "Ġnation": 4099,
      "200": 4100,
      "zed": 4101,
      "Ġ=": 4102,
      "Together": 4103,
      "Ġsunfl": 4104,
      "iverse": 4105,
      "Ġnecessary": 4106,
      "Ġroar": 4107,
      "ĠState": 4108,
      "Ġmedical": 4109,
      "Ġbrilliant": 4110,
      "Ġbathroom": 4111,
      "Ġsauce": 4112,
      "Ġiron": 4113,
      "Ġconcept": 4114,
      "Ġrequired": 4115,
      "ER": 4116,
      "angle": 4117,
      "Ġshoe": 4118,
      "Ġcamera": 4119,
      "Ġsymbol": 4120,
      "Ġpublished": 4121,
      "Ġneckl": 4122,
      "Ġgoal": 4123,
      "icles": 4124,
      "under": 4125,
      "Ġsmoke": 4126,
      "Ġstretch": 4127,
      "Ġfrequ": 4128,
      "Ġdiet": 4129,
      "ĠSoc": 4130,
      "Ġacorn": 4131,
      "Ġconcern": 4132,
      "Are": 4133,
      "Ġpressure": 4134,
      "Ġumbre": 4135,
      "Ġfilm": 4136,
      "Ġstatue": 4137,
      "Ġdelicate": 4138,
      "Ġsummer": 4139,
      "Ġshoot": 4140,
      "Ġsnacks": 4141,
      "ene": 4142,
      "Ġguit": 4143,
      "Ġglobal": 4144,
      "Ġsaying": 4145,
      "Ġdescrib": 4146,
      "Ġx": 4147,
      "ights": 4148,
      "Ġconsidered": 4149,
      "Ġdisg": 4150,
      "ieve": 4151,
      "oli": 4152,
      "Ġdisplay": 4153,
      "rences": 4154,
      "ĠCar": 4155,
      "Ġgrace": 4156,
      "Ġcher": 4157,
      "apers": 4158,
      "go": 4159,
      "Ġhistor": 4160,
      "Ġquite": 4161,
      "Ġfile": 4162,
      "Ġthankful": 4163,
      "Ġroof": 4164,
      "AS": 4165,
      "Ġteaching": 4166,
      "Ġnosy": 4167,
      "ne": 4168,
      "Ġrepair": 4169,
      "round": 4170,
      "erved": 4171,
      "stant": 4172,
      "Ġstove": 4173,
      "Ġvolcan": 4174,
      "Ġtunn": 4175,
      "Ġsex": 4176,
      "Ġfocus": 4177,
      "Ġhar": 4178,
      "Ġassociated": 4179,
      "cut": 4180,
      "Ġextra": 4181,
      "lies": 4182,
      "ointed": 4183,
      "Ġborrow": 4184,
      "verage": 4185,
      "Ġstones": 4186,
      "ĠJew": 4187,
      "Ġparrot": 4188,
      "Ġrecommend": 4189,
      "onstr": 4190,
      "Ġoffer": 4191,
      "Ġnetwork": 4192,
      "Ġyours": 4193,
      "Ġdom": 4194,
      "Ġstates": 4195,
      "urity": 4196,
      "Ġpaws": 4197,
      "erable": 4198,
      "vey": 4199,
      "Ġtied": 4200,
      "Ġjack": 4201,
      "Ġassess": 4202,
      "ĠAndy": 4203,
      "Ġprec": 4204,
      "Ġsquee": 4205,
      "Ġgloomy": 4206,
      "ĠAmerica": 4207,
      "urous": 4208,
      "Ġboys": 4209,
      "Ġpotato": 4210,
      "Ġcondition": 4211,
      "Ġrelated": 4212,
      "ĠAre": 4213,
      "inated": 4214,
      "Ġthirst": 4215,
      "upid": 4216,
      "Ġclap": 4217,
      "Ġhospital": 4218,
      "ici": 4219,
      "Ġcryst": 4220,
      "Ġdeg": 4221,
      "Ġsink": 4222,
      "anut": 4223,
      "arget": 4224,
      "Ġnods": 4225,
      "rocod": 4226,
      "Ġadventurous": 4227,
      "Ġguitar": 4228,
      "host": 4229,
      "ino": 4230,
      "apan": 4231,
      "Ġeconomic": 4232,
      "Ġfan": 4233,
      "Ġtag": 4234,
      "Ġbeet": 4235,
      "Ġnews": 4236,
      "Ġcounted": 4237,
      "ĠGeor": 4238,
      "ĠBritish": 4239,
      "ĠMama": 4240,
      "place": 4241,
      "fish": 4242,
      "Ġclaim": 4243,
      "ĠElla": 4244,
      "Ġshowing": 4245,
      "Ġmessage": 4246,
      "ĠSm": 4247,
      "Ġtank": 4248,
      "Ġrug": 4249,
      "empt": 4250,
      "Ġwalls": 4251,
      "ĠGerman": 4252,
      "Ġstrate": 4253,
      "Ġmeas": 4254,
      "Ġ197": 4255,
      "Ġdisgusting": 4256,
      "Ġdove": 4257,
      ".)": 4258,
      "Ġlit": 4259,
      "Ġcrazy": 4260,
      "Ġago": 4261,
      "ĠHist": 4262,
      "Ġmemory": 4263,
      "Ġthroughout": 4264,
      "Ġapproach": 4265,
      "Is": 4266,
      "Ġ13": 4267,
      "Ġnames": 4268,
      "Ġexplain": 4269,
      "Ġservices": 4270,
      "Ġstamp": 4271,
      "Ġdemand": 4272,
      "Ġdust": 4273,
      "Ġobed": 4274,
      "Ġcompany": 4275,
      "Ġbored": 4276,
      "Ġweather": 4277,
      "anced": 4278,
      "Ġaccident": 4279,
      "Ġwitch": 4280,
      "Ġgrown": 4281,
      "ĠQu": 4282,
      "Ġbehavior": 4283,
      "inist": 4284,
      "Ġstation": 4285,
      "13": 4286,
      "Ġimage": 4287,
      "ivil": 4288,
      "Ġincreasing": 4289,
      "ĠRex": 4290,
      "iano": 4291,
      "Ġjeep": 4292,
      "Ġmonths": 4293,
      "ru": 4294,
      "Ġfactors": 4295,
      "Ġhats": 4296,
      "):": 4297,
      "itted": 4298,
      "Ġcareless": 4299,
      "ervation": 4300,
      "Ġordinary": 4301,
      "zard": 4302,
      "Ġbull": 4303,
      "imate": 4304,
      "Ġcoal": 4305,
      "Ġcrane": 4306,
      "Ġattack": 4307,
      "Ġasleep": 4308,
      "Ġfed": 4309,
      "Ġpun": 4310,
      "Ġtiger": 4311,
      "Ġdecide": 4312,
      "Ġculture": 4313,
      "Ġsurv": 4314,
      "ĠWh": 4315,
      "Ġcube": 4316,
      "Ġharder": 4317,
      "Ġboats": 4318,
      "ĠJimmy": 4319,
      "Ġumbrella": 4320,
      "Ġcontain": 4321,
      "vere": 4322,
      "hib": 4323,
      "Ġmath": 4324,
      "Ġstronger": 4325,
      "Ġstupid": 4326,
      "corn": 4327,
      "pack": 4328,
      "Ġprovides": 4329,
      "Ġdistance": 4330,
      "based": 4331,
      "Ġchance": 4332,
      "ungle": 4333,
      "ores": 4334,
      "Ġprovided": 4335,
      "ĠMiss": 4336,
      "Ġjet": 4337,
      "Ġknife": 4338,
      "onse": 4339,
      "egr": 4340,
      "Ġhammer": 4341,
      "Ġthirsty": 4342,
      "resh": 4343,
      "ĠComp": 4344,
      "Ġimpressive": 4345,
      "ffe": 4346,
      "Ġsheet": 4347,
      "Ġcaterp": 4348,
      "berries": 4349,
      "Ġcaterpill": 4350,
      "Ġda": 4351,
      "Ġolder": 4352,
      "Ġtoast": 4353,
      "Ġdisord": 4354,
      "Ġmiserable": 4355,
      "abet": 4356,
      "artment": 4357,
      "Ġnecklace": 4358,
      "Ġmovie": 4359,
      "lt": 4360,
      "Ġcrocod": 4361,
      "amm": 4362,
      "Ġuncom": 4363,
      "iped": 4364,
      "Ġfoods": 4365,
      "Ġax": 4366,
      "Ġdoc": 4367,
      "umber": 4368,
      "Ġscatter": 4369,
      "Ġdifference": 4370,
      "Ġseparate": 4371,
      "reg": 4372,
      "ait": 4373,
      "Ġnovel": 4374,
      "ections": 4375,
      "tion": 4376,
      "Ġwife": 4377,
      "Ġmention": 4378,
      "ĠCont": 4379,
      "Ġsunflower": 4380,
      "aze": 4381,
      "Ġdesigned": 4382,
      "Ġfle": 4383,
      "Ġtend": 4384,
      "Ġchain": 4385,
      "Ġforth": 4386,
      "ari": 4387,
      "Ġclassroom": 4388,
      "Ġshall": 4389,
      "Ġpolitical": 4390,
      "Ġcaused": 4391,
      "Ġsalt": 4392,
      "atient": 4393,
      "Ġexperim": 4394,
      "inked": 4395,
      "Ġbiggest": 4396,
      "Ġproduce": 4397,
      "Ġbelonged": 4398,
      "hol": 4399,
      "Ġjungle": 4400,
      "Ġlifted": 4401,
      "ĠII": 4402,
      "Ġprize": 4403,
      "Ġsafety": 4404,
      "Ġge": 4405,
      "orks": 4406,
      "Ġobedient": 4407,
      "Ġbees": 4408,
      "Ġpasta": 4409,
      "gl": 4410,
      "ĠSu": 4411,
      "Ġseal": 4412,
      "Ġswan": 4413,
      "Ġcarrots": 4414,
      "Ġbanana": 4415,
      "Gr": 4416,
      "ĠJapan": 4417,
      "assion": 4418,
      "Ġshine": 4419,
      "Their": 4420,
      "Ġroot": 4421,
      "Ġedge": 4422,
      "Ġreact": 4423,
      "Ġbul": 4424,
      "Ġrubb": 4425,
      "Ġfridge": 4426,
      "Ġgarage": 4427,
      "Ġuncomfortable": 4428,
      "Ġenvironmental": 4429,
      "Jim": 4430,
      "gress": 4431,
      "Ġpoll": 4432,
      "Ġactive": 4433,
      "Ġ196": 4434,
      "uted": 4435,
      "Ġshut": 4436,
      "Ġposition": 4437,
      "Ġreveal": 4438,
      "Ġhoop": 4439,
      "Ġpiano": 4440,
      "llip": 4441,
      "Ġwee": 4442,
      "Ġ100": 4443,
      "Ġdiamond": 4444,
      "Ġhairy": 4445,
      "obile": 4446,
      "Ġflute": 4447,
      "Ġtorn": 4448,
      "ete": 4449,
      "âĢ¦": 4450,
      "Ġmelon": 4451,
      "Ġlibrary": 4452,
      "Sorry": 4453,
      "Ġtire": 4454,
      "Ġ50": 4455,
      "ilty": 4456,
      "Ġnotice": 4457,
      "Ġbedroom": 4458,
      "iqu": 4459,
      "het": 4460,
      "Ġcries": 4461,
      "Ġinj": 4462,
      "Ġcolour": 4463,
      "Ġsteal": 4464,
      "Ġfilthy": 4465,
      "Ġserve": 4466,
      "ito": 4467,
      "Ġcust": 4468,
      "Ġpopcorn": 4469,
      "ucing": 4470,
      "Ġvers": 4471,
      "Ġcel": 4472,
      "Ġshown": 4473,
      "Ġrice": 4474,
      "arming": 4475,
      "Ġtemperature": 4476,
      "Ġmask": 4477,
      "Ġjolly": 4478,
      "Ġsighed": 4479,
      "Ġprevious": 4480,
      "Ġguilty": 4481,
      "Ġhappening": 4482,
      "azz": 4483,
      "ply": 4484,
      "Ġhappiness": 4485,
      "Ġpriv": 4486,
      "rial": 4487,
      "Ġregard": 4488,
      "Ġimmedi": 4489,
      "Ġshrimp": 4490,
      "Ġexercise": 4491,
      "Ġhandle": 4492,
      "itude": 4493,
      "Ġcrayon": 4494,
      "Ġlean": 4495,
      "Ġrecent": 4496,
      "aked": 4497,
      "eb": 4498,
      "Ġwander": 4499,
      "Mum": 4500,
      "Ġspotted": 4501,
      "Ġdamage": 4502,
      "Ġghost": 4503,
      "Ġenter": 4504,
      "Ġmailbox": 4505,
      "14": 4506,
      "Ġpeanut": 4507,
      "Ġpositive": 4508,
      "ky": 4509,
      "Ġtotal": 4510,
      "right": 4511,
      "Ġfrown": 4512,
      "Ġtwig": 4513,
      "Ġcrocodile": 4514,
      "Ġtarget": 4515,
      "Ġraven": 4516,
      "Ġchem": 4517,
      "ĠGu": 4518,
      "usion": 4519,
      "hest": 4520,
      "Ġanalysis": 4521,
      "Inside": 4522,
      "Ġdriving": 4523,
      "Ġuses": 4524,
      "Ġslipped": 4525,
      "Ġaction": 4526,
      "Ġhumble": 4527,
      "Ġzip": 4528,
      "Ġpipe": 4529,
      "Ġdistant": 4530,
      "Ġcact": 4531,
      "Ġlines": 4532,
      "ĠHar": 4533,
      "Ġears": 4534,
      "Ġraced": 4535,
      "inks": 4536,
      "Ġregion": 4537,
      "Ġtask": 4538,
      "Ġdolp": 4539,
      "Ġanswered": 4540,
      "Ġvolcano": 4541,
      "iest": 4542,
      "ushroom": 4543,
      "Ġpale": 4544,
      "ccording": 4545,
      "body": 4546,
      "ipment": 4547,
      "Ġhtt": 4548,
      "alley": 4549,
      "Ġwritten": 4550,
      "aging": 4551,
      "Ġskull": 4552,
      "ĠAct": 4553,
      "Ġtricks": 4554,
      "pet": 4555,
      "Ġcaterpillar": 4556,
      "Ġbarrel": 4557,
      "ustral": 4558,
      "Ġshiver": 4559,
      "Ġdeaf": 4560,
      "Ġsimply": 4561,
      "vision": 4562,
      "inky": 4563,
      "Ġinvited": 4564,
      "Ġmovement": 4565,
      "cream": 4566,
      "ley": 4567,
      "ĠPeter": 4568,
      "Ġbenefits": 4569,
      "Ġharmless": 4570,
      "Ġtunnel": 4571,
      "Ġfort": 4572,
      "Ġincludes": 4573,
      "Ġanxious": 4574,
      "Ġtears": 4575,
      "ubble": 4576,
      "Ġhay": 4577,
      "Ġmushroom": 4578,
      "Ġcontinue": 4579,
      "ĠJenny": 4580,
      "Ġcomet": 4581,
      "appy": 4582,
      "Ġinvestig": 4583,
      "Ġtraining": 4584,
      "Ġdisturb": 4585,
      "ropri": 4586,
      "enny": 4587,
      "Ġcrawled": 4588,
      "Ġtube": 4589,
      "abor": 4590,
      "Ġmeaning": 4591,
      "Ġwheat": 4592,
      "Ġcauses": 4593,
      "ĠHo": 4594,
      "uments": 4595,
      "Ġ25": 4596,
      "Ġcreature": 4597,
      "stitute": 4598,
      "Ġ--": 4599,
      "Ġhappens": 4600,
      "Ġsquash": 4601,
      "Ġreceived": 4602,
      "asis": 4603,
      "Ġalert": 4604,
      "Ġarch": 4605,
      "Ġvariety": 4606,
      "Ġservice": 4607,
      "Ġmethods": 4608,
      "Ġvehicle": 4609,
      "Ġseason": 4610,
      "Ġspell": 4611,
      "Ġearl": 4612,
      "See": 4613,
      "Ġthoughtful": 4614,
      "Ġhurts": 4615,
      "Ġthread": 4616,
      "Ġpicks": 4617,
      "Ġarrow": 4618,
      "llipop": 4619,
      "illa": 4620,
      "uable": 4621,
      "ĠTrue": 4622,
      "Ġsucceed": 4623,
      "Ġdependable": 4624,
      "Ġsoldier": 4625,
      "hus": 4626,
      "Ġharsh": 4627,
      "Ġmanaged": 4628,
      "Ġcactus": 4629,
      "Ġlollipop": 4630,
      "Ġswitch": 4631,
      "Ġsociety": 4632,
      "Ġvine": 4633,
      "ĠDep": 4634,
      "Ġcheerful": 4635,
      "ai": 4636,
      "Ġtherap": 4637,
      "itary": 4638,
      "Ġtur": 4639,
      "Ġlocked": 4640,
      "Ġplaced": 4641,
      "Ġonline": 4642,
      "These": 4643,
      "Ġ|": 4644,
      "Ġthreat": 4645,
      "ronic": 4646,
      "ffee": 4647,
      "Ġconduct": 4648,
      "ĠPer": 4649,
      "ĠDan": 4650,
      "au": 4651,
      "Ġther": 4652,
      "Ġdrop": 4653,
      "Ġfeathers": 4654,
      "Ġfountain": 4655,
      "omen": 4656,
      "Ġdelight": 4657,
      "Ġfearful": 4658,
      "Ġreceive": 4659,
      "Ġdesk": 4660,
      "Ġbacter": 4661,
      "ees": 4662,
      "ĠÂ": 4663,
      "Ġaunt": 4664,
      "ĠResearch": 4665,
      "Ġseems": 4666,
      "Ġbean": 4667,
      "ĠRed": 4668,
      "Ġresponse": 4669,
      "Ġaverage": 4670,
      "ada": 4671,
      "ashing": 4672,
      "Ġincluded": 4673,
      "Ġterms": 4674,
      "Ġtroubled": 4675,
      "Ġlights": 4676,
      "Ġdistrib": 4677,
      "Ġbin": 4678,
      "ĠTe": 4679,
      "Ġelectric": 4680,
      "Ġtaxi": 4681,
      "izes": 4682,
      "Ġbeetle": 4683,
      "Ġcleaning": 4684,
      "Ġyogurt": 4685,
      "ishing": 4686,
      "Ġcompassion": 4687,
      "Ġremain": 4688,
      "Ġattractive": 4689,
      "Ġpracticed": 4690,
      "Ġbicy": 4691,
      "Ġmild": 4692,
      "Ġtriangle": 4693,
      "Ġquarrel": 4694,
      "Ġgreater": 4695,
      "ero": 4696,
      "Ġboxes": 4697,
      "Ġavoid": 4698,
      "Ġrod": 4699,
      "Ġprograms": 4700,
      "Ġequipment": 4701,
      "Molly": 4702,
      "Ġthird": 4703,
      "ĠPres": 4704,
      "Ġwrapped": 4705,
      "ictionary": 4706,
      "Ġplastic": 4707,
      "ege": 4708,
      "asses": 4709,
      "Ġcontact": 4710,
      "Ġrelative": 4711,
      "Ġforce": 4712,
      "Ġliter": 4713,
      "Ġpersonal": 4714,
      "ĠSchool": 4715,
      "Ġsle": 4716,
      "Ġpants": 4717,
      "Ġwalks": 4718,
      "Ġoffered": 4719,
      "estern": 4720,
      "nes": 4721,
      "Ġglove": 4722,
      "Ġignor": 4723,
      "ĠSammy": 4724,
      "Ġamb": 4725,
      "Ġtrunk": 4726,
      "Ġindustry": 4727,
      "cles": 4728,
      "Ġdeal": 4729,
      "Ġfresh": 4730,
      "Ġsaus": 4731,
      "Ġdreams": 4732,
      "Ġcelebrate": 4733,
      "Ġindividuals": 4734,
      "ĠAc": 4735,
      "Ġremove": 4736,
      "Ġcooked": 4737,
      "Ġcoins": 4738,
      "Ġver": 4739,
      "Ġtrop": 4740,
      "Ġplayful": 4741,
      "Ġshade": 4742,
      "gency": 4743,
      "Ġknows": 4744,
      "Ġfriendship": 4745,
      "Ġinteract": 4746,
      "Ġstrength": 4747,
      "ĠEl": 4748,
      "Ġsleeping": 4749,
      "Ġcereal": 4750,
      "imately": 4751,
      "Ġjug": 4752,
      "Ġissue": 4753,
      "ĠAustral": 4754,
      "Ġ11": 4755,
      "azine": 4756,
      "ES": 4757,
      "Ġcrystal": 4758,
      "Ġprobably": 4759,
      "opard": 4760,
      "ĠBet": 4761,
      "vention": 4762,
      "Ġmuseum": 4763,
      "Ġcompetitive": 4764,
      "orable": 4765,
      "ĠColl": 4766,
      "ufact": 4767,
      "Timmy": 4768,
      "Ġbubble": 4769,
      "Ġnewsp": 4770,
      "Ġschools": 4771,
      "lower": 4772,
      "Ġwaff": 4773,
      "Ġgathered": 4774,
      "Ġaeropl": 4775,
      "Ġpersistent": 4776,
      "iers": 4777,
      "ulu": 4778,
      "Ġattempt": 4779,
      "Ġhelmet": 4780,
      "year": 4781,
      "Ġbelieved": 4782,
      "wards": 4783,
      "Ġcush": 4784,
      "Ġshel": 4785,
      "ocr": 4786,
      "Ġpige": 4787,
      "house": 4788,
      "Ġmos": 4789,
      "Ġut": 4790,
      "husi": 4791,
      "Ġdiagn": 4792,
      "cohol": 4793,
      "With": 4794,
      "Ġhopping": 4795,
      "Ã©": 4796,
      "ĠJan": 4797,
      "ID": 4798,
      "Ġcomfort": 4799,
      "ĠNot": 4800,
      "Ġbattery": 4801,
      "ĠTw": 4802,
      "Ġvaluable": 4803,
      "____": 4804,
      "40": 4805,
      "Ġdou": 4806,
      "amin": 4807,
      "Ġhelic": 4808,
      "Ġhelpless": 4809,
      "aries": 4810,
      "Ġruined": 4811,
      "opter": 4812,
      "ĠChina": 4813,
      "Ġcoffee": 4814,
      "iber": 4815,
      "isc": 4816,
      "ĠOK": 4817,
      "Ġsam": 4818,
      "ĠFirst": 4819,
      "Ġevents": 4820,
      "All": 4821,
      "Ġdisappointed": 4822,
      "iforn": 4823,
      "Ġenthusi": 4824,
      "Ġcoco": 4825,
      "Ġjacket": 4826,
      "Ġfalls": 4827,
      "Ġflashlight": 4828,
      "ĠChe": 4829,
      "Ġchoice": 4830,
      "Ġcollar": 4831,
      "ighter": 4832,
      "Ġbrace": 4833,
      "Ġparticularly": 4834,
      "ĠSus": 4835,
      "ulate": 4836,
      "Ġphoto": 4837,
      "isions": 4838,
      "etic": 4839,
      "rench": 4840,
      "AR": 4841,
      "rast": 4842,
      "Ġmop": 4843,
      "Ġgain": 4844,
      "istics": 4845,
      "asp": 4846,
      "rs": 4847,
      "Ġped": 4848,
      "Ġpeb": 4849,
      "hold": 4850,
      "Ġrode": 4851,
      "arily": 4852,
      "Ġinvolved": 4853,
      "eer": 4854,
      "Ġsurround": 4855,
      "ĠScience": 4856,
      "men": 4857,
      "ĠSec": 4858,
      "Ġcocoa": 4859,
      "ĠCr": 4860,
      "Ġemot": 4861,
      "Ġintelligent": 4862,
      "Ġelevator": 4863,
      "Ġtap": 4864,
      "Ġexact": 4865,
      "Ġmeeting": 4866,
      "Ġadvice": 4867,
      "Ġscientists": 4868,
      "Ġpoured": 4869,
      "Ġtub": 4870,
      "Ġweb": 4871,
      "Ġsailed": 4872,
      "Ġuncle": 4873,
      "Ġcandle": 4874,
      "Ġachieve": 4875,
      "Ġleaving": 4876,
      "Ġcorrect": 4877,
      "Jane": 4878,
      "Fl": 4879,
      "Go": 4880,
      "Ġaware": 4881,
      "Ġpages": 4882,
      "att": 4883,
      "Ġbehave": 4884,
      "Ġ2009": 4885,
      "Ġessential": 4886,
      "Ġep": 4887,
      "rie": 4888,
      "acing": 4889,
      "Ġreported": 4890,
      "Ġmug": 4891,
      "iling": 4892,
      "Ġlizard": 4893,
      "Ġbracelet": 4894,
      "like": 4895,
      "Ġrev": 4896,
      "Ġloop": 4897,
      "Ġtrap": 4898,
      "Ġflour": 4899,
      "ĠEmily": 4900,
      "Ġbutt": 4901,
      "onom": 4902,
      "ners": 4903,
      "iving": 4904,
      "Ġetc": 4905,
      "live": 4906,
      "itor": 4907,
      "Mama": 4908,
      "ifornia": 4909,
      "ulif": 4910,
      "velope": 4911,
      "Ġwheels": 4912,
      "ĠMe": 4913,
      "do": 4914,
      "Ġdemonstr": 4915,
      "overy": 4916,
      "Ġlying": 4917,
      "Ġkissed": 4918,
      "ĠCenter": 4919,
      "ulated": 4920,
      "Ġfluffy": 4921,
      "Ġenvelope": 4922,
      "Ġwhose": 4923,
      "Ġletters": 4924,
      "aching": 4925,
      "Ġvict": 4926,
      "Ġstandard": 4927,
      "Ġeast": 4928,
      "ugust": 4929,
      "Ġtrump": 4930,
      "Ġcaulif": 4931,
      "Ġhelicopter": 4932,
      "Ġpointing": 4933,
      "Ġcrawl": 4934,
      "Ġbicycle": 4935,
      "Ġignorant": 4936,
      "Ġink": 4937,
      "Ġstarting": 4938,
      "Ġmarry": 4939,
      "Ġholds": 4940,
      "âĢĿ.": 4941,
      "Ġcalling": 4942,
      "Ġbasic": 4943,
      "Ġangel": 4944,
      "Ġsplit": 4945,
      "Ġske": 4946,
      "Ġimportance": 4947,
      "Ġwhispered": 4948,
      "Le": 4949,
      "ygen": 4950,
      "Ġclub": 4951,
      "Ġfork": 4952,
      "Ġlicked": 4953,
      "Ġcable": 4954,
      "Ġselect": 4955,
      "Ġextreme": 4956,
      "Ġeraser": 4957,
      "cast": 4958,
      "utor": 4959,
      "Ġleopard": 4960,
      "Ġmicrosc": 4961,
      "Ġlic": 4962,
      "ĠJake": 4963,
      "Ġbags": 4964,
      "Ġjudge": 4965,
      "Ġpine": 4966,
      "Ġlack": 4967,
      "ography": 4968,
      "Ġpit": 4969,
      "Ġshield": 4970,
      "Ġsigns": 4971,
      "Ġreplace": 4972,
      "Ġhall": 4973,
      "Ġaeroplane": 4974,
      "Ġcauliflower": 4975,
      "Ġcurt": 4976,
      "Ġwhenever": 4977,
      "Ġlouder": 4978,
      "stitution": 4979,
      "Ġimplement": 4980,
      "Ġtelephone": 4981,
      "Ġreview": 4982,
      "Ġfamilies": 4983,
      "Ġtherefore": 4984,
      "Ġtemple": 4985,
      "Ġpapers": 4986,
      "Ġcharming": 4987,
      "Ġgraceful": 4988,
      "Ġcelery": 4989,
      "Ġcord": 4990,
      "Ġmuff": 4991,
      "Ġisn": 4992,
      "atives": 4993,
      "Ġthus": 4994,
      "Ġgifted": 4995,
      "Ġrag": 4996,
      "ĠAnt": 4997,
      "olid": 4998,
      "Ġcompon": 4999,
      "Ġenvious": 5000,
      "Ġnor": 5001,
      "Ġscoot": 5002,
      "Ġ/": 5003,
      "ĠJune": 5004,
      "quito": 5005,
      "Ġgenerally": 5006,
      "Ġrefer": 5007,
      "zzy": 5008,
      "anda": 5009,
      "asons": 5010,
      "undred": 5011,
      "ĠDes": 5012,
      "ustain": 5013,
      "Ġgem": 5014,
      "Ġcollection": 5015,
      "Ġmodest": 5016,
      "Ġnicely": 5017,
      "Ġleading": 5018,
      "Ġsources": 5019,
      "Ġboot": 5020,
      "ĠRom": 5021,
      "Ġrestless": 5022,
      "using": 5023,
      "weet": 5024,
      "ĠMo": 5025,
      "Ġgrant": 5026,
      "Ġconsum": 5027,
      "Ġsituation": 5028,
      "Ġshells": 5029,
      "Ġmanufact": 5030,
      "Ġing": 5031,
      "Ġpoem": 5032,
      "Ġcounting": 5033,
      "Ġchalk": 5034,
      "Ġresc": 5035,
      "tti": 5036,
      "Ġcustom": 5037,
      "ĠPipp": 5038,
      "AT": 5039,
      "ĠMore": 5040,
      "Ġflood": 5041,
      "Ġdiary": 5042,
      "Ġbuttons": 5043,
      "Ġremo": 5044,
      "Ġbrothers": 5045,
      "Ġsilver": 5046,
      "imum": 5047,
      "Ġkinds": 5048,
      "Ġproduced": 5049,
      "Ġneighb": 5050,
      "ĠGl": 5051,
      "Ġdeveloping": 5052,
      "Ġguard": 5053,
      "Ġtrumpet": 5054,
      "Ġforms": 5055,
      "Bobo": 5056,
      "Ġdefin": 5057,
      "ica": 5058,
      "ĠCount": 5059,
      "Ġcarbon": 5060,
      "Ġcompan": 5061,
      "Ġpolicy": 5062,
      "Ġagree": 5063,
      "Ġcooking": 5064,
      "Ġornam": 5065,
      "Ġstranger": 5066,
      "ubby": 5067,
      "Ġturkey": 5068,
      "Ġscrew": 5069,
      "Ġgrad": 5070,
      "na": 5071,
      "ĠCons": 5072,
      "Ġdecision": 5073,
      "22": 5074,
      "Ġsafely": 5075,
      "ĠSee": 5076,
      "Ġskip": 5077,
      "Ġavoc": 5078,
      "oming": 5079,
      "acht": 5080,
      "Ġteachers": 5081,
      "Ġmotorcy": 5082,
      "Ġvacc": 5083,
      "pite": 5084,
      "ength": 5085,
      "Ġprice": 5086,
      "Ġpurse": 5087,
      "haps": 5088,
      "Ġspun": 5089,
      "ĠPat": 5090,
      "Ġseries": 5091,
      "hetti": 5092,
      "Ġwebs": 5093,
      "Ġpeach": 5094,
      "ccoli": 5095,
      "Ġorigin": 5096,
      "Ġsuggested": 5097,
      "Ġgor": 5098,
      "enced": 5099,
      "Ġallows": 5100,
      "Ġlistening": 5101,
      "Ġlarger": 5102,
      "igr": 5103,
      "Ġpigeon": 5104,
      "Ġtummy": 5105,
      "ĠIndia": 5106,
      "Ġperformance": 5107,
      "Ġfootball": 5108,
      "ĠCalifornia": 5109,
      "Ġweeks": 5110,
      "Ġonion": 5111,
      "Ġcalc": 5112,
      "Ġdaily": 5113,
      "Ġpor": 5114,
      "Ġoy": 5115,
      "ĠNe": 5116,
      "Ġslid": 5117,
      "Ġvest": 5118,
      "roll": 5119,
      "Ġadorable": 5120,
      "Ġimagine": 5121,
      "Ġdirectly": 5122,
      "Ġrout": 5123,
      "ĠLittle": 5124,
      "ola": 5125,
      "aws": 5126,
      "Ġsight": 5127,
      "oses": 5128,
      "Ġappropri": 5129,
      "ode": 5130,
      "Ġtheory": 5131,
      "Ġneedle": 5132,
      "Ġscientific": 5133,
      "keep": 5134,
      "Ġradish": 5135,
      "Ġeight": 5136,
      "Ġweap": 5137,
      "aghetti": 5138,
      "Ġcushion": 5139,
      "Ġbump": 5140,
      "ĠApp": 5141,
      "Ġtrail": 5142,
      "Ġbreat": 5143,
      "ĠGeorge": 5144,
      "Ġhost": 5145,
      "Ġensure": 5146,
      "Ġcompassionate": 5147,
      "Ġbelt": 5148,
      "Ġdisappeared": 5149,
      "Ġpole": 5150,
      "dd": 5151,
      "Ġpowder": 5152,
      "Ġmint": 5153,
      "Ġrequest": 5154,
      "Ġcit": 5155,
      "ucle": 5156,
      "anas": 5157,
      "Ġnurse": 5158,
      "vest": 5159,
      "Ġhumans": 5160,
      "Ġfactory": 5161,
      "Ġshrink": 5162,
      "irm": 5163,
      "aped": 5164,
      "ively": 5165,
      "Ġdrawings": 5166,
      "Ġspinning": 5167,
      "Ġrib": 5168,
      "Ġspaghetti": 5169,
      "ushed": 5170,
      "Ġtray": 5171,
      "ĠJes": 5172,
      "Ġraft": 5173,
      "'d": 5174,
      "essie": 5175,
      "Ġmagazine": 5176,
      "Ġexpress": 5177,
      "nov": 5178,
      "Ġpsych": 5179,
      "Ġdy": 5180,
      "ĠArt": 5181,
      "rees": 5182,
      "enry": 5183,
      "Ġthunder": 5184,
      "Ġexpected": 5185,
      "Ġmosquito": 5186,
      "Ġdolphin": 5187,
      "ĠPre": 5188,
      "oby": 5189,
      "Ġ24": 5190,
      "dge": 5191,
      "was": 5192,
      "Ġyacht": 5193,
      "Ġchubby": 5194,
      "ĠDav": 5195,
      "Ġtour": 5196,
      "enge": 5197,
      "zer": 5198,
      "Ġtear": 5199,
      "Ġhabit": 5200,
      "Ġreward": 5201,
      "Ġsolar": 5202,
      "Ġsett": 5203,
      "Ġstarts": 5204,
      "Ġintegr": 5205,
      "Ġlively": 5206,
      "Ġunlock": 5207,
      "Ġwiped": 5208,
      "Ġprepare": 5209,
      "25": 5210,
      "riage": 5211,
      "Ġtelevision": 5212,
      "Ġnegative": 5213,
      "Ġpony": 5214,
      "Ġtiss": 5215,
      "ĠLook": 5216,
      "cil": 5217,
      "Ġstack": 5218,
      "Ġveil": 5219,
      "Ġrubbed": 5220,
      "Ġprogress": 5221,
      "rict": 5222,
      "owed": 5223,
      "ĠUnder": 5224,
      "Ġyield": 5225,
      "Ġcarpet": 5226,
      "ĠBo": 5227,
      "Ġmedia": 5228,
      "dr": 5229,
      "ĠOther": 5230,
      "Ġpatterns": 5231,
      "eff": 5232,
      "Ġsniff": 5233,
      "affe": 5234,
      "Ġassist": 5235,
      "aky": 5236,
      "Ġthous": 5237,
      "igator": 5238,
      "Ġplayground": 5239,
      "Ġslept": 5240,
      "ped": 5241,
      "Ġitch": 5242,
      "Ġbroccoli": 5243,
      "Ġaim": 5244,
      "Ġgolf": 5245,
      "ients": 5246,
      "Ġcentral": 5247,
      "Ġyaw": 5248,
      "Ġskipped": 5249,
      "Ġbandage": 5250,
      "Ġdrain": 5251,
      "Ġinstit": 5252,
      "Ġpurpose": 5253,
      "Ġec": 5254,
      "osition": 5255,
      "Ġpackage": 5256,
      "abetes": 5257,
      "Ġstyle": 5258,
      "Ġestim": 5259,
      "Ġbeginning": 5260,
      "Ġmotorcycle": 5261,
      "Ġproced": 5262,
      "Ġbarber": 5263,
      "ns": 5264,
      "Ġestablished": 5265,
      "Ġpear": 5266,
      "ĠEuropean": 5267,
      "Ġlaser": 5268,
      "ĠPaul": 5269,
      "Ġoxygen": 5270,
      "Ġbushes": 5271,
      "Ġtherm": 5272,
      "Ġinternational": 5273,
      "Ġoct": 5274,
      "Ġpolish": 5275,
      "Ġholes": 5276,
      "Ġprotection": 5277,
      "Ġsteak": 5278,
      "Ġaltern": 5279,
      "âĢ¢": 5280,
      "Ġoperation": 5281,
      "ĠLulu": 5282,
      "Ġwishes": 5283,
      "hemat": 5284,
      "ĠMum": 5285,
      "Ġcompared": 5286,
      "ications": 5287,
      "org": 5288,
      "ĠEast": 5289,
      "Ġfolder": 5290,
      "ĠIndian": 5291,
      "Ġtrucks": 5292,
      "pril": 5293,
      "Ġkindness": 5294,
      "Ġworkers": 5295,
      "alend": 5296,
      "Well": 5297,
      "works": 5298,
      "Ġcricket": 5299,
      "ologies": 5300,
      "Ġchalleng": 5301,
      "Ġscooter": 5302,
      "Ġorganize": 5303,
      "Ġhundred": 5304,
      "ĠAugust": 5305,
      "Ġimages": 5306,
      "Ġimpatient": 5307,
      "Ġloudly": 5308,
      "iciency": 5309,
      "Ġfalling": 5310,
      "Ġraise": 5311,
      "ties": 5312,
      "Ġhipp": 5313,
      "ĠFe": 5314,
      "Ġmissile": 5315,
      "Ġmixer": 5316,
      "Ġfinanc": 5317,
      "Ġdetermine": 5318,
      "umbled": 5319,
      "Ġsneeze": 5320,
      "cell": 5321,
      "Ġadop": 5322,
      "oices": 5323,
      "Sarah": 5324,
      "ĠGrand": 5325,
      "Ġstrawberry": 5326,
      "Ġopin": 5327,
      "overn": 5328,
      "pro": 5329,
      "ĠFrench": 5330,
      "Ġtelling": 5331,
      "Ġpup": 5332,
      "Ġpengu": 5333,
      "Ġgir": 5334,
      "Ġsus": 5335,
      "Ġearlier": 5336,
      "Ġtuna": 5337,
      "Ġacid": 5338,
      "Ġdied": 5339,
      "inese": 5340,
      "ĠSw": 5341,
      "Ġgrapes": 5342,
      "Ġreflect": 5343,
      "Ġcapital": 5344,
      "Ġparade": 5345,
      "gin": 5346,
      "Ġpair": 5347,
      "Ġnorth": 5348,
      "Ġalthough": 5349,
      "Ġchose": 5350,
      "Ġlie": 5351,
      "--": 5352,
      "pe": 5353,
      "Ġfeelings": 5354,
      "Ġjellyfish": 5355,
      "ĠMarch": 5356,
      "ĠWhere": 5357,
      "Ġskelet": 5358,
      "Ġsoar": 5359,
      "ford": 5360,
      "Ġtick": 5361,
      "Ġhaircut": 5362,
      "ension": 5363,
      "Ġlaughs": 5364,
      "Billy": 5365,
      "IS": 5366,
      "Ġbounced": 5367,
      "Ġfingers": 5368,
      "www": 5369,
      "Ġcups": 5370,
      "Ġsweater": 5371,
      "Ġconcent": 5372,
      "Ġpilot": 5373,
      "Cl": 5374,
      "ounds": 5375,
      "Ġeasier": 5376,
      "Ġfest": 5377,
      "icated": 5378,
      "Ġconsequ": 5379,
      "Ġleaders": 5380,
      "Ġnewspaper": 5381,
      "Ġknot": 5382,
      "ĠEach": 5383,
      "Ġtraditional": 5384,
      "\",": 5385,
      "Give": 5386,
      "Ġtoile": 5387,
      "ĠOct": 5388,
      "ĠInstitute": 5389,
      "Ġthief": 5390,
      "ĠMost": 5391,
      "bles": 5392,
      "Ġreef": 5393,
      "Ġsettle": 5394,
      "Ġglowing": 5395,
      "Ġworth": 5396,
      "Ġdictionary": 5397,
      "Ġgrill": 5398,
      "Ġcooler": 5399,
      "Ġmarble": 5400,
      "IN": 5401,
      "fast": 5402,
      "imin": 5403,
      "eal": 5404,
      "Ġpaid": 5405,
      "Ġhedge": 5406,
      "Ġaccur": 5407,
      "Ġpacked": 5408,
      "Ġdecre": 5409,
      "rupt": 5410,
      "Ġmicroscope": 5411,
      "wise": 5412,
      "ecture": 5413,
      "Ġ2010": 5414,
      "Ġlaws": 5415,
      "Ġyoga": 5416,
      "ĠHistory": 5417,
      "Ġdive": 5418,
      "encies": 5419,
      "Ġflea": 5420,
      "essert": 5421,
      "Ġcred": 5422,
      "gies": 5423,
      "Ġbur": 5424,
      "Ġdecorate": 5425,
      "Ġavocado": 5426,
      "cked": 5427,
      "Ġahead": 5428,
      "ibr": 5429,
      "Ġfisher": 5430,
      "Ġrail": 5431,
      "Ġkay": 5432,
      "Ġpatch": 5433,
      "glasses": 5434,
      "Ġexcept": 5435,
      "Ġflame": 5436,
      "Ġdeb": 5437,
      "ilos": 5438,
      "Ġopens": 5439,
      "Ġfireplace": 5440,
      "Ġdessert": 5441,
      "ĠWater": 5442,
      "Ġadults": 5443,
      "water": 5444,
      "Ġcommunities": 5445,
      "Ex": 5446,
      "ON": 5447,
      "Ġalcohol": 5448,
      "Ġkeeping": 5449,
      "ĠBuzz": 5450,
      "Em": 5451,
      "Ġalligator": 5452,
      "Ġnearly": 5453,
      "Ġsunglasses": 5454,
      "ĠBig": 5455,
      "Ġvalues": 5456,
      "Ġcritical": 5457,
      "Ġcostume": 5458,
      "Ġmultiple": 5459,
      "Ġresponsible": 5460,
      "Ġsausage": 5461,
      "alendar": 5462,
      "Ġcarrying": 5463,
      "uries": 5464,
      "Ġgear": 5465,
      "olic": 5466,
      "uces": 5467,
      "IV": 5468,
      "Ġhook": 5469,
      "Ġcrop": 5470,
      "Ġbod": 5471,
      "Ġtripped": 5472,
      "Ġeval": 5473,
      "ĠDepartment": 5474,
      "Ġoyster": 5475,
      "opus": 5476,
      "ouncil": 5477,
      "Ġ40": 5478,
      "Ġlime": 5479,
      "Ġoak": 5480,
      "Ġstairs": 5481,
      "Ġofficial": 5482,
      "aph": 5483,
      "Ġlargest": 5484,
      "Ġspoke": 5485,
      "Ġcosts": 5486,
      "Ġviolin": 5487,
      "uing": 5488,
      "aud": 5489,
      "Ġfro": 5490,
      "Ġhighly": 5491,
      "Ġvend": 5492,
      "Sh": 5493,
      "Ġmaze": 5494,
      "ondon": 5495,
      "yond": 5496,
      "Ġder": 5497,
      "yer": 5498,
      "Ġsection": 5499,
      "Ġnail": 5500,
      "Ġfog": 5501,
      "Ġcows": 5502,
      "Ġcoast": 5503,
      "ĠPoppy": 5504,
      "Ġrolling": 5505,
      "Ġveter": 5506,
      "Ġuniverse": 5507,
      "Ġdelay": 5508,
      "Ġpirate": 5509,
      "Ġgorilla": 5510,
      "Ġmental": 5511,
      "anding": 5512,
      "ĠRiver": 5513,
      "Ġpebble": 5514,
      "Ġanch": 5515,
      "Ġchess": 5516,
      "Ġ194": 5517,
      "ĠEduc": 5518,
      "night": 5519,
      "ĠMin": 5520,
      "Ġsevere": 5521,
      "Ġcreating": 5522,
      "Ġquant": 5523,
      "Ġlabel": 5524,
      "Ġobjects": 5525,
      "Ġlaund": 5526,
      "ashington": 5527,
      "Ġbeyond": 5528,
      "ĠInf": 5529,
      "Ġhotel": 5530,
      "Ġrespond": 5531,
      "ĠJesus": 5532,
      "ĠPart": 5533,
      "iven": 5534,
      "Ġmitten": 5535,
      "Ġrelease": 5536,
      "?\".": 5537,
      "Ġattach": 5538,
      "Ġunc": 5539,
      "Ġfurn": 5540,
      "Ġadditional": 5541,
      "Ġ2012": 5542,
      "Ġimmediately": 5543,
      "ux": 5544,
      "Ġcupboard": 5545,
      "oul": 5546,
      "ĠZip": 5547,
      "iles": 5548,
      "Ġdisp": 5549,
      "Ġbroad": 5550,
      "Ġpenny": 5551,
      "Ġkayak": 5552,
      "Ġmanage": 5553,
      "Ġdrawer": 5554,
      "Ġdiseases": 5555,
      "Ġlaundry": 5556,
      "ober": 5557,
      "ĠRose": 5558,
      "ĠNor": 5559,
      "Ġtoilet": 5560,
      "Ġaud": 5561,
      "Ġlend": 5562,
      "Ġbecomes": 5563,
      "Ġtransl": 5564,
      "Ġmodels": 5565,
      "raft": 5566,
      "ĠEngland": 5567,
      "ĠMc": 5568,
      "chair": 5569,
      "Ġtrash": 5570,
      "vant": 5571,
      "Ġprimary": 5572,
      "Ġwine": 5573,
      "Ġshocked": 5574,
      "Ġwallet": 5575,
      "Ġinterp": 5576,
      "Ġbulb": 5577,
      "Ġputting": 5578,
      "Ġanywhere": 5579,
      "Ġi": 5580,
      "ĠBecause": 5581,
      "htub": 5582,
      "ĠPress": 5583,
      "Ġwest": 5584,
      "Ġbathtub": 5585,
      "ĠPark": 5586,
      "Ġprojects": 5587,
      "Ġinfection": 5588,
      "Ġenthusiastic": 5589,
      "loo": 5590,
      "Ġdate": 5591,
      "hern": 5592,
      "Ġcob": 5593,
      "Ġended": 5594,
      "Ġaxe": 5595,
      "Ġaspect": 5596,
      "Ġefforts": 5597,
      "Ġprior": 5598,
      "Your": 5599,
      "Ġhyp": 5600,
      "Ġreverse": 5601,
      "Ġfeatures": 5602,
      "Ġtransport": 5603,
      "Ġtraff": 5604,
      "ĠEnd": 5605,
      "umption": 5606,
      "Ġquit": 5607,
      "Ġtesting": 5608,
      "osy": 5609,
      "Ġbananas": 5610,
      "iot": 5611,
      "asks": 5612,
      "Un": 5613,
      "ĠAlthough": 5614,
      "Ġactions": 5615,
      "Ġattic": 5616,
      "ipper": 5617,
      "Ġcapac": 5618,
      "Ġbaseball": 5619,
      "Ġinfluence": 5620,
      "Ġhunter": 5621,
      "istol": 5622,
      "ipping": 5623,
      "Ġaw": 5624,
      "Ġble": 5625,
      "Ġbasketball": 5626,
      "ban": 5627,
      "Ġoctopus": 5628,
      "erson": 5629,
      "ĠChinese": 5630,
      "Ġmilitary": 5631,
      "apid": 5632,
      "Ġsolution": 5633,
      "rest": 5634,
      "Ġsteam": 5635,
      "Ġmicrophone": 5636,
      "Ġencourage": 5637,
      "Ġcontains": 5638,
      "ev": 5639,
      "enty": 5640,
      "Ġdecl": 5641,
      "Ġrefused": 5642,
      "ĠWest": 5643,
      "Ġstops": 5644,
      "Ġdocument": 5645,
      "Ġprotein": 5646,
      "Ġmarched": 5647,
      "Ġhanging": 5648,
      "iar": 5649,
      "Ġ,": 5650,
      "ribe": 5651,
      "Ġsailor": 5652,
      "ĠChristian": 5653,
      "Ġtrophy": 5654,
      "Ġtutor": 5655,
      "ĠInternational": 5656,
      "Ġcalendar": 5657,
      "isms": 5658,
      "Ġstable": 5659,
      "ius": 5660,
      "iform": 5661,
      "ĠCom": 5662,
      "Ġpretending": 5663,
      "Ġlimited": 5664,
      "osure": 5665,
      "Ġshelter": 5666,
      "back": 5667,
      "iture": 5668,
      "Ġcolon": 5669,
      "Ġfollows": 5670,
      "Ġcenter": 5671,
      "Ġneur": 5672,
      "Ġmedal": 5673,
      "Ġpicking": 5674,
      "ĠApril": 5675,
      "Ġremains": 5676,
      "Ġpractices": 5677,
      "iring": 5678,
      "Ġnotebook": 5679,
      "Ġambul": 5680,
      "Ġlandsc": 5681,
      "Ġbasis": 5682,
      "Ġhighest": 5683,
      "Ġrule": 5684,
      "ĠJames": 5685,
      "Ġfavour": 5686,
      "Ġprocesses": 5687,
      "Ġimpl": 5688,
      "Ġhttp": 5689,
      "uman": 5690,
      "Ġfinds": 5691,
      "Ġeffort": 5692,
      "Ġappropriate": 5693,
      "Ġrestaur": 5694,
      "ĠJuly": 5695,
      "ĠGive": 5696,
      "Ġexcit": 5697,
      "Ġward": 5698,
      "Ġtornado": 5699,
      "Ġtests": 5700,
      "ĠAfrica": 5701,
      "Ġok": 5702,
      "Ġneat": 5703,
      "lands": 5704,
      "Ġdescribed": 5705,
      "Ġplayer": 5706,
      "Ġfastest": 5707,
      "Ġlocated": 5708,
      "Ġchallenge": 5709,
      "ĠRec": 5710,
      "Ġcompletely": 5711,
      "ico": 5712,
      "lying": 5713,
      "Ġslides": 5714,
      "Ġelements": 5715,
      "Ġrecognize": 5716,
      "ollow": 5717,
      "itis": 5718,
      "Ġcompanies": 5719,
      "Ġcane": 5720,
      "rogen": 5721,
      "tress": 5722,
      "amb": 5723,
      "Ġsne": 5724,
      "ĠOur": 5725,
      "Ġmattress": 5726,
      "Ġcabinet": 5727,
      "Ġhippo": 5728,
      "Ġbank": 5729,
      "term": 5730,
      "Ġmissing": 5731,
      "Ġmiles": 5732,
      "Ġhyd": 5733,
      "Ġborn": 5734,
      "Ġrefr": 5735,
      "iques": 5736,
      "Ġstom": 5737,
      "Ġskeleton": 5738,
      "Ġweigh": 5739,
      "ctions": 5740,
      "Ġmineral": 5741,
      "Ġlightning": 5742,
      "Ġsecurity": 5743,
      "ĠPresident": 5744,
      "Ġlotion": 5745,
      "Ġden": 5746,
      "Ġthanks": 5747,
      "Ġdirection": 5748,
      "Ġargue": 5749,
      "Ġgrandpa": 5750,
      "Ġweep": 5751,
      "Ġreligious": 5752,
      "outhern": 5753,
      "Ġcivil": 5754,
      "Ġstra": 5755,
      "Ġenjoying": 5756,
      "cing": 5757,
      "vironment": 5758,
      "ĠWashington": 5759,
      "idents": 5760,
      "izations": 5761,
      "Ġsoftware": 5762,
      "ĠChild": 5763,
      "Ġrequires": 5764,
      "Ġanchor": 5765,
      "Ġambulance": 5766,
      "uous": 5767,
      "Ġwindows": 5768,
      "Ġbelongs": 5769,
      "Ġtherapy": 5770,
      "Ġconflic": 5771,
      "fa": 5772,
      "Ġstrip": 5773,
      "lor": 5774,
      "Ġherb": 5775,
      "ĠCor": 5776,
      "ĠAssoc": 5777,
      "amber": 5778,
      "ĠDay": 5779,
      "ĠKim": 5780,
      "Ġbeef": 5781,
      "ĠBirdy": 5782,
      "Ġ21": 5783,
      "Ġtoward": 5784,
      "Ġsandbox": 5785,
      "Ġtransm": 5786,
      "Ġadvant": 5787,
      "AN": 5788,
      "ĠCO": 5789,
      "Ġgiggled": 5790,
      "ĠPolly": 5791,
      "Ġcobwe": 5792,
      "entially": 5793,
      "hens": 5794,
      "Ġmarriage": 5795,
      "Ġvalley": 5796,
      "Ġinstall": 5797,
      "21": 5798,
      "case": 5799,
      "ening": 5800,
      "lection": 5801,
      "agement": 5802,
      "Ġfinal": 5803,
      "ĠPippin": 5804,
      "life": 5805,
      "ĠLondon": 5806,
      "Ġsuffer": 5807,
      "Ġbarking": 5808,
      "Ġcurtain": 5809,
      "anks": 5810,
      "Ġcopper": 5811,
      "Ġsurvey": 5812,
      "Ġrealised": 5813,
      "Ġmuffin": 5814,
      "Ġstraight": 5815,
      "Ġvit": 5816,
      "Ġanyway": 5817,
      "Ġdisag": 5818,
      "Ġexamine": 5819,
      "rol": 5820,
      "thern": 5821,
      "Ġblackboard": 5822,
      "Ġrhy": 5823,
      "Ġuniversity": 5824,
      "Ġidentify": 5825,
      "Ġeconomy": 5826,
      "Ġmummy": 5827,
      "Ġult": 5828,
      "ĠPol": 5829,
      "Ġtowers": 5830,
      "Ġbreakfast": 5831,
      "Ġcircles": 5832,
      "Ġsouth": 5833,
      "Ġhut": 5834,
      "Ġcards": 5835,
      "Ġmentioned": 5836,
      "ournal": 5837,
      "Ġvendor": 5838,
      "Ġexcitement": 5839,
      "ils": 5840,
      "Ġrates": 5841,
      "Ġdisappear": 5842,
      "iches": 5843,
      "Ġagric": 5844,
      "Ġcommunication": 5845,
      "Jimmy": 5846,
      "Ġgym": 5847,
      "Ġrul": 5848,
      "mosp": 5849,
      "Ġpressed": 5850,
      "ĠSnow": 5851,
      "Ġleash": 5852,
      "Ġdetail": 5853,
      "min": 5854,
      "Ġsaving": 5855,
      "Ġlif": 5856,
      "ĠFox": 5857,
      "ĠRet": 5858,
      "Ġwebsite": 5859,
      "Ġfestival": 5860,
      "23": 5861,
      "IC": 5862,
      "Ġclosely": 5863,
      "Ġdrugs": 5864,
      "Ġholid": 5865,
      "ĠBow": 5866,
      "ĠGreen": 5867,
      "ugged": 5868,
      "Ġoats": 5869,
      "Ġdegree": 5870,
      "Fluffy": 5871,
      "Ġsteel": 5872,
      "Ġcourt": 5873,
      "ebra": 5874,
      "eep": 5875,
      "ĠSept": 5876,
      "Ġchemical": 5877,
      "Ġcitiz": 5878,
      "Ġ2011": 5879,
      "Ġvari": 5880,
      "hel": 5881,
      "Ġspear": 5882,
      "Ġtypically": 5883,
      "Ġornament": 5884,
      "imal": 5885,
      "ĠBill": 5886,
      "Ġmakeup": 5887,
      "Ġsquirrels": 5888,
      "ĠReg": 5889,
      "Bye": 5890,
      "Ġswamp": 5891,
      "Ġstretched": 5892,
      "keeper": 5893,
      "ometer": 5894,
      "Tr": 5895,
      "Ġautomobile": 5896,
      "ĠTina": 5897,
      "Ġund": 5898,
      "isted": 5899,
      "Ġbacteria": 5900,
      "Ġingred": 5901,
      "Ġbehavi": 5902,
      "Ġjewelry": 5903,
      "ĠMon": 5904,
      "Ġscore": 5905,
      "Ġfinancial": 5906,
      "Ġrapid": 5907,
      "Ġsetting": 5908,
      "Ġig": 5909,
      "Ġsudden": 5910,
      "fortun": 5911,
      "Ġtraffic": 5912,
      "Ġclimbing": 5913,
      "Ġpastry": 5914,
      "Jill": 5915,
      "render": 5916,
      "anges": 5917,
      "Ġraised": 5918,
      "AC": 5919,
      "Some": 5920,
      "indeer": 5921,
      "ĠProt": 5922,
      "Ġfields": 5923,
      "Ġinstruct": 5924,
      "Ġevening": 5925,
      "ĠLee": 5926,
      "Ġrubber": 5927,
      "Ġstomach": 5928,
      "Ġsustain": 5929,
      "Ġlumber": 5930,
      "ĠRo": 5931,
      "issions": 5932,
      "Ġjokes": 5933,
      "Ġbathe": 5934,
      "Ġcopy": 5935,
      "cember": 5936,
      "Ġopportunity": 5937,
      "Joe": 5938,
      "Ġbodies": 5939,
      "Ġpistol": 5940,
      "Ġstumbled": 5941,
      "ulf": 5942,
      "aker": 5943,
      "washer": 5944,
      "60": 5945,
      "reci": 5946,
      "Ġhappier": 5947,
      "ĠEverywhere": 5948,
      "Ġhurry": 5949,
      "ĠCity": 5950,
      "Ġrefriger": 5951,
      "ena": 5952,
      "Ġmeadow": 5953,
      "ĠMus": 5954,
      "Ġfisherman": 5955,
      "ĠHenry": 5956,
      "Ġprivate": 5957,
      "aft": 5958,
      "Ġdifferences": 5959,
      "load": 5960,
      "eding": 5961,
      "ittens": 5962,
      "aint": 5963,
      "Ġcollected": 5964,
      "Ġmeasured": 5965,
      "Ġclin": 5966,
      "Ġlegal": 5967,
      "Ġhoc": 5968,
      "Ġwhip": 5969,
      "Ġdrinking": 5970,
      "Ġdishwasher": 5971,
      "see": 5972,
      "Ġcalls": 5973,
      "Ġaccepted": 5974,
      "equ": 5975,
      "Ġlength": 5976,
      "Ġjumps": 5977,
      "ĠZoom": 5978,
      "Ġperfume": 5979,
      "Ġbutterflies": 5980,
      "Ġticket": 5981,
      "Ġgoals": 5982,
      "Ġpassport": 5983,
      "Ġproperty": 5984,
      "ĠSund": 5985,
      "ensity": 5986,
      "Ġarmchair": 5987,
      "Ġearthqu": 5988,
      "Ġlabor": 5989,
      "Ġconstruction": 5990,
      "ĠBetty": 5991,
      "ĠAlex": 5992,
      "Ġuniform": 5993,
      "Ġsites": 5994,
      "Ġreindeer": 5995,
      "Ġpinch": 5996,
      "omas": 5997,
      "Ġreasons": 5998,
      "Ġspilled": 5999,
      "Ġpoke": 6000,
      "Ġzebra": 6001,
      "Ġwardrobe": 6002,
      "Ġrecently": 6003,
      "oma": 6004,
      "ĠHelp": 6005,
      "Ġrestore": 6006,
      "ror": 6007,
      "Ġcontext": 6008,
      "Ġopera": 6009,
      "Ġapplication": 6010,
      "rogram": 6011,
      "Ġwaffle": 6012,
      "Ġriding": 6013,
      "Ġapart": 6014,
      "Ġapr": 6015,
      "24": 6016,
      "Ġbeans": 6017,
      "Ġjunk": 6018,
      "Ġalarm": 6019,
      "Ġseven": 6020,
      "'ve": 6021,
      "hem": 6022,
      "inct": 6023,
      "Ġstirred": 6024,
      "Ġcherries": 6025,
      "199": 6026,
      "ĠPete": 6027,
      "Ġot": 6028,
      "ĠServ": 6029,
      "ĠCarl": 6030,
      "Ġexcl": 6031,
      "rough": 6032,
      "Ġplanning": 6033,
      "iki": 6034,
      "Ġbenefit": 6035,
      "Ġtrains": 6036,
      "Ġlung": 6037,
      "Ġbelief": 6038,
      "Ġjuicy": 6039,
      "ĠCour": 6040,
      "Ġskirt": 6041,
      "reedom": 6042,
      "Ġnapkin": 6043,
      "Ġwool": 6044,
      "Ġboots": 6045,
      "ĠPar": 6046,
      "Ġmustache": 6047,
      "Ġadminist": 6048,
      "ding": 6049,
      "ĠSusie": 6050,
      "ĠOctober": 6051,
      "uate": 6052,
      "ĠBessie": 6053,
      "ĠIr": 6054,
      "Ġmistakes": 6055,
      "Ow": 6056,
      "Ġpenguin": 6057,
      "OR": 6058,
      "Ġmolec": 6059,
      "Ġlink": 6060,
      "Ġformer": 6061,
      "Ġknob": 6062,
      "Ġpredict": 6063,
      "Ġporch": 6064,
      "Ġworse": 6065,
      "ĠDis": 6066,
      "Ġconstant": 6067,
      "Ġpurch": 6068,
      "ipl": 6069,
      "Ġhive": 6070,
      "Ġdreamed": 6071,
      "Ġcommer": 6072,
      "Ġknock": 6073,
      "Ġproviding": 6074,
      "Ġigloo": 6075,
      "hab": 6076,
      "tr": 6077,
      "Ġobserved": 6078,
      "Ġnucle": 6079,
      "Ġrestaurant": 6080,
      "Ġhockey": 6081,
      "Ġdoors": 6082,
      "ĠIts": 6083,
      "Ġtaller": 6084,
      "ĠAmericans": 6085,
      "orses": 6086,
      "Ġfought": 6087,
      "urg": 6088,
      "Ġsequ": 6089,
      "Ġpalace": 6090,
      "ĠGood": 6091,
      "ĠNext": 6092,
      "Ġmuscles": 6093,
      "Ġcardboard": 6094,
      "Ġquiz": 6095,
      "ĠMrs": 6096,
      "Ġvirus": 6097,
      "Ġlawyer": 6098,
      "Ġpunish": 6099,
      "Ġchim": 6100,
      "ĠJournal": 6101,
      "ription": 6102,
      "Ġsparkly": 6103,
      "Ġbones": 6104,
      "Ġcultural": 6105,
      "ĠTechn": 6106,
      "Ġadj": 6107,
      "ĠCanada": 6108,
      "Wait": 6109,
      "off": 6110,
      "ĠToby": 6111,
      "ĠSan": 6112,
      "Ġfurniture": 6113,
      "vet": 6114,
      "Ġremained": 6115,
      "Ġheads": 6116,
      "Ġaffected": 6117,
      "ĠSmith": 6118,
      "Ġhate": 6119,
      "aroo": 6120,
      "ĠWilliam": 6121,
      "aves": 6122,
      "azor": 6123,
      "Ġfireman": 6124,
      "Ar": 6125,
      "ibly": 6126,
      "Ġsandwiches": 6127,
      "Ġprepared": 6128,
      "Ġinvite": 6129,
      "fess": 6130,
      "ĠRuss": 6131,
      "Ġbathrobe": 6132,
      "Ġmeasures": 6133,
      "ĠSim": 6134,
      "Ġbeauty": 6135,
      "ĠTrans": 6136,
      "Ġbillboard": 6137,
      "Ġroots": 6138,
      "Ġunpack": 6139,
      "Ġsearching": 6140,
      "cial": 6141,
      "ĠCong": 6142,
      "Ġcontroll": 6143,
      "arning": 6144,
      "Ġmule": 6145,
      "Ġrake": 6146,
      "Ġleak": 6147,
      "Ġcaring": 6148,
      "ogen": 6149,
      "ĠDavid": 6150,
      "Not": 6151,
      "angaroo": 6152,
      "Ġapplications": 6153,
      "Ġremoved": 6154,
      "Ġvirt": 6155,
      "Ġmoves": 6156,
      "ĠGovern": 6157,
      "EN": 6158,
      "Ġnumer": 6159,
      "Ġreleased": 6160,
      "uk": 6161,
      "ĠGreat": 6162,
      "rael": 6163,
      "Ġmarried": 6164,
      "Did": 6165,
      "Ġmusician": 6166,
      "Ġtechniques": 6167,
      "reement": 6168,
      "Ġdiabetes": 6169,
      "Ġdigital": 6170,
      "Ġexactly": 6171,
      "Ġforces": 6172,
      "ĠAv": 6173,
      "ĠDevelop": 6174,
      "ament": 6175,
      "Ġpeek": 6176,
      "ctors": 6177,
      "Ġsurrender": 6178,
      "ventually": 6179,
      "ĠChar": 6180,
      "Ġcommand": 6181,
      "Ġtightly": 6182,
      "Ġlicense": 6183,
      "Ġbent": 6184,
      "ĠInc": 6185,
      "gypt": 6186,
      "Ġsnap": 6187,
      "ĠTweet": 6188,
      "Ġyouth": 6189,
      "Ġshaking": 6190,
      "Ġhung": 6191,
      "wh": 6192,
      "Ġbury": 6193,
      "Ġplates": 6194,
      "Ġrooms": 6195,
      "Ġserved": 6196,
      "Ġrescue": 6197,
      "Ġliqu": 6198,
      "estic": 6199,
      "Ġbillion": 6200,
      "Ġsitu": 6201,
      "Ġrecorded": 6202,
      "Ġobserve": 6203,
      "Ġshower": 6204,
      "Ġinfant": 6205,
      "oto": 6206,
      "Ġplays": 6207,
      "Ġapprox": 6208,
      "Ġstruggle": 6209,
      "Ġphen": 6210,
      "apter": 6211,
      "Ġappreci": 6212,
      "Ġzipper": 6213,
      "Ġbuildings": 6214,
      "Ġpushing": 6215,
      "Ġlat": 6216,
      "ĠSunny": 6217,
      "Ġsubway": 6218,
      "Ġconnect": 6219,
      "Ġkangaroo": 6220,
      "Ġstared": 6221,
      "ĠArch": 6222,
      "iat": 6223,
      "Ġgirls": 6224,
      "ounce": 6225,
      "ĠRoman": 6226,
      "htray": 6227,
      "ĠWho": 6228,
      "ĠFrog": 6229,
      "ĠNove": 6230,
      "Ġ27": 6231,
      "Ġsofa": 6232,
      "ĠAfrican": 6233,
      "Ġanti": 6234,
      "Ġpleased": 6235,
      "icial": 6236,
      "Ġpopped": 6237,
      "eros": 6238,
      "omb": 6239,
      "ĠBoth": 6240,
      "Ġvia": 6241,
      "Ġpoison": 6242,
      "Ġburied": 6243,
      "Ġreduced": 6244,
      "Ġmission": 6245,
      "ĠNovember": 6246,
      "ĠTeddy": 6247,
      "bl": 6248,
      "Ġtheater": 6249,
      "Ġroared": 6250,
      "ED": 6251,
      "Ġprinc": 6252,
      "Ġchimney": 6253,
      "Mummy": 6254,
      "Ġmaintain": 6255,
      "ĠJanuary": 6256,
      "Ġformed": 6257,
      "Ġhelper": 6258,
      "lim": 6259,
      "Ġbecoming": 6260,
      "Ġminute": 6261,
      "ĠDecember": 6262,
      "rical": 6263,
      "ĠAccording": 6264,
      "elcome": 6265,
      "Ġpee": 6266,
      "ĠChurch": 6267,
      "Ġsweetie": 6268,
      "ĠSun": 6269,
      "ĠSch": 6270,
      "Ġfreezer": 6271,
      "Ġfauc": 6272,
      "edy": 6273,
      "Ġinnov": 6274,
      "Ġbeep": 6275,
      "ests": 6276,
      "Ġalive": 6277,
      "ĠOf": 6278,
      "Ġwarned": 6279,
      "Ġpainter": 6280,
      "Ġgiraffe": 6281,
      "ĠHigh": 6282,
      "Ġflat": 6283,
      "mark": 6284,
      "olar": 6285,
      "Ġbreaks": 6286,
      "fortunately": 6287,
      "stairs": 6288,
      "Ġsomewhere": 6289,
      "Ġhanded": 6290,
      "Ġmuscle": 6291,
      "Ġimagined": 6292,
      "Ġperhaps": 6293,
      "Ġstandards": 6294,
      "Ġweapon": 6295,
      "Ġcreation": 6296,
      "Ġsubst": 6297,
      "ĠEnvironment": 6298,
      "Ġorganization": 6299,
      "Ġfederal": 6300,
      "Ġtit": 6301,
      "Ġshoulder": 6302,
      "Ġincreases": 6303,
      "Ġabsor": 6304,
      "Ġteasp": 6305,
      "Ġgasped": 6306,
      "ĠSince": 6307,
      "Ġprofessional": 6308,
      "Ġexec": 6309,
      "Ġchamber": 6310,
      "Ġusers": 6311,
      "Ġconver": 6312,
      "Ġcode": 6313,
      "Ġcapacity": 6314,
      "ĠHave": 6315,
      "Ġbend": 6316,
      "Ġkill": 6317,
      "ulum": 6318,
      "Ġcliff": 6319,
      "ĠRem": 6320,
      "Ġentered": 6321,
      "ĠAdd": 6322,
      "Ġsqueeze": 6323,
      "Ġashtray": 6324,
      "Ġatmosp": 6325,
      "Ġcounter": 6326,
      "Ġmystery": 6327,
      "II": 6328,
      "Ġtease": 6329,
      "Ġdevice": 6330,
      "Ġnotes": 6331,
      "Ġcobweb": 6332,
      "ĠMex": 6333,
      "Ġbrick": 6334,
      "Ġbikes": 6335,
      "Ġpanic": 6336,
      "Ġdevices": 6337,
      "Ġrepeat": 6338,
      "oral": 6339,
      "Ġrhin": 6340,
      "Ġfrogs": 6341,
      "Ġinform": 6342,
      "Ġguid": 6343,
      "ashion": 6344,
      "Ġswinging": 6345,
      "Ġoccurs": 6346,
      "Ġotter": 6347,
      "Ġstickers": 6348,
      "ria": 6349,
      "adium": 6350,
      "elling": 6351,
      "ĠSeptember": 6352,
      "Ġfaucet": 6353,
      "ĠSpike": 6354,
      "ampoo": 6355,
      "80": 6356,
      "la": 6357,
      "Ġceiling": 6358,
      "Ġrecommended": 6359,
      "ĠGeneral": 6360,
      "Ġoasis": 6361,
      "thm": 6362,
      "Ġinsp": 6363,
      "ĠEducation": 6364,
      "rome": 6365,
      "Ġren": 6366,
      "Ġstudied": 6367,
      "Ġmotion": 6368,
      "Ġcurrently": 6369,
      "Ġhorses": 6370,
      "rif": 6371,
      "Ġ60": 6372,
      "Will": 6373,
      "Ġcrib": 6374,
      "ĠMill": 6375,
      "zag": 6376,
      "Ġmice": 6377,
      "Ġblueberries": 6378,
      "Ġairport": 6379,
      "Ġ2013": 6380,
      "Ġwipe": 6381,
      "Ġplans": 6382,
      "Ġpregn": 6383,
      "Ġsounded": 6384,
      "Ġpresence": 6385,
      "ĠJewish": 6386,
      "Ġrazor": 6387,
      "ula": 6388,
      "Ġfindings": 6389,
      "ĠSystem": 6390,
      "ĠSur": 6391,
      "Ġcommonly": 6392,
      "Ġlandscape": 6393,
      "Ġfavourite": 6394,
      "Ġapron": 6395,
      "Ġphilos": 6396,
      "Ġgrape": 6397,
      "Ġappears": 6398,
      "Ġlawn": 6399,
      "Ġadmire": 6400,
      "Little": 6401,
      "semb": 6402,
      "hero": 6403,
      "Ġaccidentally": 6404,
      "Ġmember": 6405,
      "ĠGrandpa": 6406,
      "Ouch": 6407,
      "Ġguide": 6408,
      "Ġcomplain": 6409,
      "Ġhanger": 6410,
      "Ġrefrigerator": 6411,
      "ald": 6412,
      "Ġmyself": 6413,
      "ĠBlack": 6414,
      "Ġstim": 6415,
      "Ġshampoo": 6416,
      "IT": 6417,
      "Ġfully": 6418,
      "helf": 6419,
      "Ġpoked": 6420,
      "Ġmathemat": 6421,
      "kins": 6422,
      "zing": 6423,
      "Ġlid": 6424,
      "Ġcourage": 6425,
      "Ġseeing": 6426,
      "Ġignore": 6427,
      "ams": 6428,
      "ĠOut": 6429,
      "Ġdeeper": 6430,
      "Ġimproved": 6431,
      "Ġdestroyed": 6432,
      "Ġexperiences": 6433,
      "Ġveterin": 6434,
      "Ġacqu": 6435,
      "ĠAlso": 6436,
      "ĠBar": 6437,
      "Ġ2008": 6438,
      "Ġnutri": 6439,
      "Ġchickens": 6440,
      "hetic": 6441,
      "Ġconstruct": 6442,
      "wide": 6443,
      "itic": 6444,
      "Ġstro": 6445,
      "ĠDuring": 6446,
      "ĠEgypt": 6447,
      "Ġexamples": 6448,
      "Ġholiday": 6449,
      "Ġtissue": 6450,
      "ĠSociety": 6451,
      "unes": 6452,
      "Ġplanned": 6453,
      "Ġhistorical": 6454,
      "Ġdisorders": 6455,
      "Ġmount": 6456,
      "Ġlocation": 6457,
      "ĠCounty": 6458,
      "Ġbound": 6459,
      "Ġostr": 6460,
      "ĠUK": 6461,
      "However": 6462,
      "ender": 6463,
      "umes": 6464,
      "ingu": 6465,
      "Ġrespectful": 6466,
      "mes": 6467,
      "Ġplanes": 6468,
      "ĠIsrael": 6469,
      "Ġenh": 6470,
      "Ġtechnologies": 6471,
      "Ġsexual": 6472,
      "Mr": 6473,
      "ifying": 6474,
      "Ġ22": 6475,
      "ĠOff": 6476,
      "Ġrelatively": 6477,
      ");": 6478,
      "iders": 6479,
      "ĠMag": 6480,
      "!\".": 6481,
      "isl": 6482,
      "igzag": 6483,
      "ĠDNA": 6484,
      "Ġflies": 6485,
      "Ġsunset": 6486,
      "Ġ23": 6487,
      "Ġapplied": 6488,
      "Ġteaspoon": 6489,
      "uggage": 6490,
      "Ġmajority": 6491,
      "Ġfaith": 6492,
      "rieved": 6493,
      "Ġblinked": 6494,
      "Ġsoldiers": 6495,
      "Ġcreek": 6496,
      "Ġjail": 6497,
      "ĠSpeed": 6498,
      "mm": 6499,
      "Ġ2007": 6500,
      "Ġbears": 6501,
      "Ġcore": 6502,
      "anish": 6503,
      "Ġluggage": 6504,
      "Ġmut": 6505,
      "atever": 6506,
      "Ġbookshelf": 6507,
      "Ġsuggests": 6508,
      "ĠCommun": 6509,
      "Ġtrem": 6510,
      "Ġattached": 6511,
      "Ġeducational": 6512,
      "Ġemergency": 6513,
      "Ġbuckle": 6514,
      "Ġburned": 6515,
      "Ġchallenges": 6516,
      "Ġearthquake": 6517,
      "Ġcateg": 6518,
      "related": 6519,
      "Ġfirework": 6520,
      "Ġefficient": 6521,
      "Ġchairs": 6522,
      "ĠSunday": 6523,
      "PA": 6524,
      "Ġregions": 6525,
      "Ġpeeked": 6526,
      "icing": 6527,
      "Ġcontract": 6528,
      "ĠVir": 6529,
      "Ġelectricity": 6530,
      "Ġdishes": 6531,
      "gery": 6532,
      "Ġtip": 6533,
      "omed": 6534,
      "ĠLou": 6535,
      "Ġeaten": 6536,
      "Ġbookcase": 6537,
      "Ġconsumption": 6538,
      "Ġtransfer": 6539,
      "ĠJapanese": 6540,
      "Ġveterinarian": 6541,
      "Bl": 6542,
      "Ġitems": 6543,
      "ĠMac": 6544,
      "Ġlimit": 6545,
      "Ġmall": 6546,
      "Ġlands": 6547,
      "Ġperformed": 6548,
      "ille": 6549,
      "Ġconvers": 6550,
      "pective": 6551,
      "ĠUse": 6552,
      "Ġdancer": 6553,
      "Ġidentified": 6554,
      "ĠCouncil": 6555,
      "Ġblouse": 6556,
      "Ġmaint": 6557,
      "Ġrecognized": 6558,
      "Ġingredients": 6559,
      "Ġtra": 6560,
      "Ġswung": 6561,
      "Ġmatches": 6562,
      "Ġ:": 6563,
      "Ġostrich": 6564,
      "70": 6565,
      "Ġthumb": 6566,
      "Ġranch": 6567,
      "Ġvisited": 6568,
      "Ġwisdom": 6569,
      "Ġtox": 6570,
      "icip": 6571,
      "ĠBi": 6572,
      "Ġimmune": 6573,
      "Ġsch": 6574,
      "ending": 6575,
      "Ġcompar": 6576,
      "Ġpromot": 6577,
      "ĠRepublic": 6578,
      "ographic": 6579,
      "ĠAustralia": 6580,
      "cont": 6581,
      "po": 6582,
      "Ġbrings": 6583,
      "Ġstadium": 6584,
      "ĠBubbles": 6585,
      "ĠMod": 6586,
      "oration": 6587,
      "ops": 6588,
      "Ġcompleted": 6589,
      "ĠOnce": 6590,
      "Ġunite": 6591,
      "Ġinterested": 6592,
      "Ġrisks": 6593,
      "Ġrow": 6594,
      "Ġgenetic": 6595,
      "Ġopinion": 6596,
      "Ġqual": 6597,
      "bre": 6598,
      "erg": 6599,
      "Ġleaned": 6600,
      "ulty": 6601,
      "ĠStr": 6602,
      "Ġpresented": 6603,
      "Ġequal": 6604,
      "Because": 6605,
      "Ġzero": 6606,
      "AL": 6607,
      "Ġcities": 6608,
      "ading": 6609,
      "Ġtwirl": 6610,
      "Ġreminded": 6611,
      "Ġarr": 6612,
      "Or": 6613,
      "Ġincome": 6614,
      "ĠCharl": 6615,
      "Ġexplored": 6616,
      "Ġoptions": 6617,
      "Ġdetails": 6618,
      "Ġintroduced": 6619,
      "Ġestablish": 6620,
      "mar": 6621,
      "rition": 6622,
      "atin": 6623,
      "Ġuser": 6624,
      "Ġspots": 6625,
      "Dr": 6626,
      "rehens": 6627,
      "Ġknight": 6628,
      "Ġpad": 6629,
      "aving": 6630,
      "Ġoverall": 6631,
      "Ġshouts": 6632,
      "eel": 6633,
      "ĠMich": 6634,
      "Ġmax": 6635,
      "riculum": 6636,
      "29": 6637,
      "che": 6638,
      "Ġprotected": 6639,
      "urs": 6640,
      "Ġmagn": 6641,
      "Ġoccup": 6642,
      "Ġproperly": 6643,
      "icate": 6644,
      "Ġwarning": 6645,
      "Ġconnected": 6646,
      "ĠAssociation": 6647,
      "look": 6648,
      "Ġsect": 6649,
      "cious": 6650,
      "Â°": 6651,
      "Ġastr": 6652,
      "rief": 6653,
      "ĠLord": 6654,
      "Ġevolution": 6655,
      "rise": 6656,
      "Ġfashion": 6657,
      "Ġsport": 6658,
      "Ġjobs": 6659,
      "Ġmonkeys": 6660,
      "ĠInternet": 6661,
      "Ġsadly": 6662,
      "Ġoffers": 6663,
      "Daisy": 6664,
      "Ġincor": 6665,
      "bruary": 6666,
      "Ġstructures": 6667,
      "Ġsneezed": 6668,
      "Ġribbon": 6669,
      "ĠJazz": 6670,
      "Ġinstance": 6671,
      "Ġthousands": 6672,
      "Ġshot": 6673,
      "Ġclick": 6674,
      "Ġpopulations": 6675,
      "Ġsurprises": 6676,
      "Ġchanging": 6677,
      "Ġash": 6678,
      "ĠProgram": 6679,
      "Ġhoping": 6680,
      "Ġ193": 6681,
      "Ġcutting": 6682,
      "Before": 6683,
      "Ġversion": 6684,
      "28": 6685,
      "Ġbrightly": 6686,
      "asion": 6687,
      "Ġ195": 6688,
      "ĠPhil": 6689,
      "Ġfluid": 6690,
      "Ġextremely": 6691,
      "Ġ26": 6692,
      "Ġslipp": 6693,
      "Ġproudly": 6694,
      "Today": 6695,
      "oceros": 6696,
      "igen": 6697,
      "Ġdrops": 6698,
      "Ġtrusted": 6699,
      "Ġcitizens": 6700,
      "ST": 6701,
      "Ġleader": 6702,
      "Ġleather": 6703,
      "Ġtreated": 6704,
      "Ġdecisions": 6705,
      "Ġdiscovery": 6706,
      "ciples": 6707,
      "Ġproperties": 6708,
      "igation": 6709,
      "Ġdreaming": 6710,
      "Ġdat": 6711,
      "abilities": 6712,
      "Ġpoly": 6713,
      "ĠOver": 6714,
      "Ġemph": 6715,
      "Ġintroduce": 6716,
      "Ġthermometer": 6717,
      "Ġinterpret": 6718,
      "ĠSl": 6719,
      "change": 6720,
      "Ġanswers": 6721,
      "Ġtim": 6722,
      "Ġapply": 6723,
      "ĠOw": 6724,
      "Ġcreatures": 6725,
      "Ġillness": 6726,
      "oe": 6727,
      "Ġrang": 6728,
      "Ġlip": 6729,
      "ĠWould": 6730,
      "Ġactual": 6731,
      "Ġmenu": 6732,
      "Ġresistance": 6733,
      "Ġfixing": 6734,
      "Ġvisual": 6735,
      "Ġcausing": 6736,
      "Ġrevealed": 6737,
      "Ġcomponents": 6738,
      "26": 6739,
      "Ġopportunities": 6740,
      "Ġsew": 6741,
      "Ġjoint": 6742,
      "Int": 6743,
      "Ġconv": 6744,
      "Ġdear": 6745,
      "Ġfactor": 6746,
      "Ġassign": 6747,
      "Ġmer": 6748,
      "Ġchasing": 6749,
      "Ġ28": 6750,
      "Next": 6751,
      "orage": 6752,
      "Ġvel": 6753,
      "Ġlions": 6754,
      "ĠRel": 6755,
      "Ġdelighted": 6756,
      "Ġdetect": 6757,
      "Ġtradition": 6758,
      "Ġexisting": 6759,
      "Ġdistribution": 6760,
      "27": 6761,
      "Ġacade": 6762,
      "Ġconflict": 6763,
      "Ġliquid": 6764,
      "Ġslippery": 6765,
      "Ġwre": 6766,
      "male": 6767,
      "Ġpulls": 6768,
      "Ġmal": 6769,
      "ĠMid": 6770,
      "Ġclearly": 6771,
      "Ġsides": 6772,
      "Ġboo": 6773,
      "Ġreports": 6774,
      "Ġburning": 6775,
      "Ġtracks": 6776,
      "Ġresource": 6777,
      "zen": 6778,
      "Ġunh": 6779,
      "ĠSal": 6780,
      "abies": 6781,
      "Ġleads": 6782,
      "sec": 6783,
      "otten": 6784,
      "Ġdisorder": 6785,
      "hers": 6786,
      "Ġemissions": 6787,
      "resp": 6788,
      "ĠBefore": 6789,
      "Ġrhinoceros": 6790,
      "thank": 6791,
      "Ġspade": 6792,
      "Ġthrowing": 6793,
      "ndrome": 6794,
      "Ġrushed": 6795,
      "ĠAlice": 6796,
      "Ġstrategies": 6797,
      "ĠOb": 6798,
      "Ġgrabs": 6799,
      "Ann": 6800,
      "Our": 6801,
      "iment": 6802,
      "Ġoperations": 6803,
      "ĠQue": 6804,
      "Ġregret": 6805,
      "Ġfreeze": 6806,
      "cage": 6807,
      "Ġfreedom": 6808,
      "ĠMat": 6809,
      "Ġcartoon": 6810,
      "ĠLaw": 6811,
      "ricane": 6812,
      "Ġharbor": 6813,
      "Ġpermit": 6814,
      "Ġvot": 6815,
      "Ġbrighter": 6816,
      "ishes": 6817,
      "Ġfunctions": 6818,
      "Ġflav": 6819,
      "âĢĿ,": 6820,
      "Ġdefined": 6821,
      "uke": 6822,
      "Ġberry": 6823,
      "ompl": 6824,
      "Ġcared": 6825,
      "Ġparties": 6826,
      "Ġtopic": 6827,
      "force": 6828,
      "ĠCourt": 6829,
      "During": 6830,
      "ĠDolly": 6831,
      "ĠThus": 6832,
      "Ġcycle": 6833,
      "ĠRetrieved": 6834,
      "Ġfrowned": 6835,
      "aign": 6836,
      "Ġkilled": 6837,
      "Ġcapt": 6838,
      "yc": 6839,
      "ĠTest": 6840,
      "ship": 6841,
      "Ġbirdcage": 6842,
      "Ġspect": 6843,
      "osh": 6844,
      "ris": 6845,
      "Ġwigg": 6846,
      "ĠLike": 6847,
      "ource": 6848,
      "ĠRich": 6849,
      "Ġforeign": 6850,
      "Ġcollabor": 6851,
      "iveness": 6852,
      "HE": 6853,
      "Ġexcitedly": 6854,
      "ancing": 6855,
      "Ġorganizations": 6856,
      "Ġsoul": 6857,
      "ĠTex": 6858,
      "Ġreference": 6859,
      "icky": 6860,
      "Ġsunrise": 6861,
      "Ġimagination": 6862,
      "aimed": 6863,
      "iated": 6864,
      "ednes": 6865,
      "ĠMike": 6866,
      "Ġfloat": 6867,
      "Ġ2015": 6868,
      "urther": 6869,
      "Ġletting": 6870,
      "ĠOlive": 6871,
      "Ġexposure": 6872,
      "Ġindustrial": 6873,
      "Ġapproximately": 6874,
      "AM": 6875,
      "Ġtasks": 6876,
      "ĠMor": 6877,
      "Ġantib": 6878,
      "ĠFrance": 6879,
      "heart": 6880,
      "Ġheav": 6881,
      "Ġtemperatures": 6882,
      "Ġunit": 6883,
      "Ġourselves": 6884,
      "Ġutil": 6885,
      "Ġphenomen": 6886,
      "lin": 6887,
      "Ġnone": 6888,
      "ĠHouse": 6889,
      "prise": 6890,
      "Ġpushes": 6891,
      "ednesday": 6892,
      "ophy": 6893,
      "Ġdecades": 6894,
      "ĠVol": 6895,
      "Ġstudying": 6896,
      "Ġconsequences": 6897,
      "ĠWestern": 6898,
      "Ġslight": 6899,
      "Ġsupported": 6900,
      "Ġdiscussion": 6901,
      "Ġfirm": 6902,
      "Ġcudd": 6903,
      "Ġsticky": 6904,
      "Ġtoe": 6905,
      "Ġvary": 6906,
      "Ġreality": 6907,
      "Ġhopes": 6908,
      "Ġadmired": 6909,
      "Ġirr": 6910,
      "ĠAng": 6911,
      "ET": 6912,
      "urally": 6913,
      "istry": 6914,
      "ossible": 6915,
      "Ġcolourful": 6916,
      "Ġ...": 6917,
      "Ġsatis": 6918,
      "Ġpolic": 6919,
      "Ġdie": 6920,
      "Ġreb": 6921,
      "Ġ2014": 6922,
      "Ġpolicies": 6923,
      "ĠPal": 6924,
      "Ġreaches": 6925,
      "Ġves": 6926,
      "Ġcogn": 6927,
      "Ġsignal": 6928,
      "Ġstatus": 6929,
      "rim": 6930,
      "Ġshone": 6931,
      "omin": 6932,
      "Ġ2006": 6933,
      "Ġstrike": 6934,
      "ĠDevelopment": 6935,
      "ĠPandy": 6936,
      "Ġluck": 6937,
      "roduct": 6938,
      "ĠIsland": 6939,
      "Ġpp": 6940,
      "Ġopening": 6941,
      "à¥": 6942,
      "erm": 6943,
      "Ġzoomed": 6944,
      "Ġsizes": 6945,
      "antly": 6946,
      "angers": 6947,
      "Ġsuperhero": 6948,
      "Ġagreement": 6949,
      "Ġbattle": 6950,
      "Ġcommercial": 6951,
      "noon": 6952,
      "amed": 6953,
      "ĠSpanish": 6954,
      "Ġrepeated": 6955,
      "Ġrhythm": 6956,
      "Ġhour": 6957,
      "ashed": 6958,
      "Ġfemale": 6959,
      "Ġchecked": 6960,
      "ĠThomas": 6961,
      "ĠPlan": 6962,
      "Ġaccompl": 6963,
      "Ġconnection": 6964,
      "Ġexperiment": 6965,
      "yl": 6966,
      "Ġnative": 6967,
      "Ġrac": 6968,
      "ĠRock": 6969,
      "Ġ29": 6970,
      "Ġcontrast": 6971,
      "Res": 6972,
      "Ġunderground": 6973,
      "Ġsupposed": 6974,
      "Ġpresents": 6975,
      "care": 6976,
      "aine": 6977,
      "Ġwarn": 6978,
      "Ġmonit": 6979,
      "Ġ2000": 6980,
      "Ġfert": 6981,
      "eration": 6982,
      "ĠRos": 6983,
      "ologist": 6984,
      "Ġelement": 6985,
      "ĠNAS": 6986,
      "Ġrained": 6987,
      "Ġencouraged": 6988,
      "Ġsniffed": 6989,
      "ĠBinky": 6990,
      "Ġpigs": 6991,
      "Ġmachines": 6992,
      "ĠCollege": 6993,
      "ĠDec": 6994,
      "iance": 6995,
      "ida": 6996,
      "Ġscen": 6997,
      "with": 6998,
      "ĠSpeedy": 6999,
      "Ġresulting": 7000,
      "Ġalternative": 7001,
      "rier": 7002,
      "opy": 7003,
      "Ġplanted": 7004,
      "Ġrelationships": 7005,
      "Ġconsist": 7006,
      "Ġrequirements": 7007,
      "Ġfrequently": 7008,
      "osystem": 7009,
      "oog": 7010,
      "ĠAg": 7011,
      "Ġbadly": 7012,
      "ads": 7013,
      "Ġsoftly": 7014,
      "ĠUnion": 7015,
      "Ġassessment": 7016,
      "ĠFebruary": 7017,
      "Ġpermission": 7018,
      "Ġoutput": 7019,
      "Ġpuddles": 7020,
      "Ġcrossed": 7021,
      "isation": 7022,
      "olved": 7023,
      "Ġadapt": 7024,
      "EC": 7025,
      "uri": 7026,
      "Ġà¤": 7027,
      "Ġtide": 7028,
      "imens": 7029,
      "ĠGreek": 7030,
      "Ġowners": 7031,
      "ĠTwo": 7032,
      "Ġnumerous": 7033,
      "Ġrecords": 7034,
      "Ġlanguages": 7035,
      "Ġwhom": 7036,
      "ferences": 7037,
      "Ġafternoon": 7038,
      "esc": 7039,
      "ĠMuseum": 7040,
      "Ġexcess": 7041,
      "irect": 7042,
      "ĠCongress": 7043,
      "ype": 7044,
      "ĠBel": 7045,
      "ĠRobert": 7046,
      "Ab": 7047,
      "Ġrush": 7048,
      "Ġsprayed": 7049,
      "Pro": 7050,
      "ault": 7051,
      "Ġexplan": 7052,
      "ĠJohnny": 7053,
      "Ġestimated": 7054,
      "Ġstorage": 7055,
      "PS": 7056,
      "arrow": 7057,
      "Ġaspects": 7058,
      "Ġbud": 7059,
      "Ġshovel": 7060,
      "Ġunhappy": 7061,
      "antic": 7062,
      "Ġuns": 7063,
      "Ġ190": 7064,
      "Ġgenes": 7065,
      "Ġwidely": 7066,
      "ĠMedic": 7067,
      "Grandma": 7068,
      "Wh": 7069,
      "hors": 7070,
      "ĠSat": 7071,
      "Ġexpert": 7072,
      "Ġignored": 7073,
      "Ġimpressed": 7074,
      "Mary": 7075,
      "eds": 7076,
      "uration": 7077,
      "Ġinjury": 7078,
      "oll": 7079,
      "ĠWeb": 7080,
      "Ġbarks": 7081,
      "print": 7082,
      "Ġscratch": 7083,
      "li": 7084,
      "lam": 7085,
      "ĠAut": 7086,
      "uls": 7087,
      "order": 7088,
      "Ġforgave": 7089,
      "Ġsmells": 7090,
      "Ġ80": 7091,
      "Ġreligion": 7092,
      "Ġprune": 7093,
      "Ġcrash": 7094,
      "ĠRev": 7095,
      "ael": 7096,
      "Ġmaster": 7097,
      "ĠLa": 7098,
      "Ġbuzz": 7099,
      "Ġcredit": 7100,
      "tical": 7101,
      "anes": 7102,
      "Ġfallen": 7103,
      "45": 7104,
      "Ġtong": 7105,
      "ĠFed": 7106,
      "Ġtum": 7107,
      "Ġspeech": 7108,
      "Ġconducted": 7109,
      "Ġvessel": 7110,
      "ĠNASA": 7111,
      "ĠCre": 7112,
      "ĠCath": 7113,
      "Ġexcell": 7114,
      "ĠTexas": 7115,
      "ĠPublic": 7116,
      "Ġthrows": 7117,
      "Ġrabbits": 7118,
      "Ġnavy": 7119,
      "Ġnobody": 7120,
      "ĠSpec": 7121,
      "Ġcouple": 7122,
      "nds": 7123,
      "Ġearn": 7124,
      "Ġgeneration": 7125,
      "Ġoption": 7126,
      "Ġdepression": 7127,
      "Ġsignificantly": 7128,
      "ĠBuzzy": 7129,
      "Ġpollution": 7130,
      "Ġfet": 7131,
      "Ġsac": 7132,
      "Ġgiggle": 7133,
      "Ġdried": 7134,
      "ĠIS": 7135,
      "ĠUN": 7136,
      "Ġtechnique": 7137,
      "Ġcombination": 7138,
      "ĠJews": 7139,
      "ĠFound": 7140,
      "ously": 7141,
      "ords": 7142,
      "Ġorganic": 7143,
      "Ġmemories": 7144,
      "Ġsocks": 7145,
      "Ġhills": 7146,
      "Ġinitial": 7147,
      "Ã¡": 7148,
      "Ġded": 7149,
      "Ġgreedy": 7150,
      "Ġdrinks": 7151,
      "Ġsticker": 7152,
      "Ġvolume": 7153,
      "Ġapolog": 7154,
      "ĠSocial": 7155,
      "Ġarchit": 7156,
      "Lisa": 7157,
      "unction": 7158,
      "ĠTherefore": 7159,
      "Ġconcentr": 7160,
      "Ġbaking": 7161,
      "Ġlaid": 7162,
      "sters": 7163,
      "Ġunivers": 7164,
      "Ġtransform": 7165,
      "Ġadvantage": 7166,
      "atural": 7167,
      "Ġvent": 7168,
      "Ġpirates": 7169,
      "ĠHuman": 7170,
      "Ġnoted": 7171,
      "Ġfailure": 7172,
      "Ġwhatever": 7173,
      "Ġslip": 7174,
      "Ġbother": 7175,
      "Ġisol": 7176,
      "Ġcharge": 7177,
      "Ġvolunt": 7178,
      "First": 7179,
      "iate": 7180,
      "ĠMad": 7181,
      "Ġobserv": 7182,
      "Ġdegrees": 7183,
      "igi": 7184,
      "oco": 7185,
      "Ġplanets": 7186,
      "Ġapplaud": 7187,
      "Ġcub": 7188,
      "Ġminor": 7189,
      "Ġhearts": 7190,
      "Ġselling": 7191,
      "ĠGermany": 7192,
      "Ġcult": 7193,
      "Ġgraph": 7194,
      "Ġchronic": 7195,
      "Ġpresident": 7196,
      "Ġsolutions": 7197,
      "SA": 7198,
      "ĠFore": 7199,
      "uesday": 7200,
      "Ġprayed": 7201,
      "Yay": 7202,
      "Ġbabies": 7203,
      "enth": 7204,
      "Ġshakes": 7205,
      "akers": 7206,
      "Ġprefer": 7207,
      "andom": 7208,
      "Ġintr": 7209,
      "Ġvision": 7210,
      "Ġ2004": 7211,
      "Ġprinted": 7212,
      "field": 7213,
      "what": 7214,
      "char": 7215,
      "ĠJul": 7216,
      "ĠKeep": 7217,
      "Ġadding": 7218,
      "Ġcharacteristics": 7219,
      "Ġpanda": 7220,
      "ups": 7221,
      "Ġcrow": 7222,
      "Ġstair": 7223,
      "osite": 7224,
      "ĠSk": 7225,
      "osity": 7226,
      "nergy": 7227,
      "Ġlegisl": 7228,
      "Ġanxiety": 7229,
      "Ġemotional": 7230,
      "ĠPort": 7231,
      "Ġwinning": 7232,
      "Ġinvolves": 7233,
      "Ġinvent": 7234,
      "ĠCam": 7235,
      "Ġprinciples": 7236,
      "Ġconcl": 7237,
      "Ġscattered": 7238,
      "ij": 7239,
      "Ġheel": 7240,
      "amental": 7241,
      "Ġupper": 7242,
      "ĠOld": 7243,
      "Ġterrit": 7244,
      "igging": 7245,
      "ĠFreddy": 7246,
      "Ġdescribe": 7247,
      "Ġast": 7248,
      "ĠMil": 7249,
      "Ġbreast": 7250,
      "Ġdespite": 7251,
      "Ġpromote": 7252,
      "Ġjogged": 7253,
      "Ġeffectively": 7254,
      "Ġexperienced": 7255,
      "Ġshivering": 7256,
      "Many": 7257,
      "Ġforced": 7258,
      "Ġfacts": 7259,
      "Ġpowers": 7260,
      "fessor": 7261,
      "EM": 7262,
      "ĠWednesday": 7263,
      "Ġbackground": 7264,
      "comes": 7265,
      "Ġsuffering": 7266,
      "porary": 7267,
      "oogle": 7268,
      "35": 7269,
      "Buddy": 7270,
      "mare": 7271,
      "Ġwashing": 7272,
      "Ġcomprehens": 7273,
      "Ġremote": 7274,
      "Ġphysic": 7275,
      "ĠCap": 7276,
      "Ġcelebrated": 7277,
      "Ġhom": 7278,
      "Ġshift": 7279,
      "Ġkneel": 7280,
      "Ġclasses": 7281,
      "ulating": 7282,
      "ieties": 7283,
      "Ġfishing": 7284,
      "Con": 7285,
      "han": 7286,
      "ĠSer": 7287,
      "Ġlaughter": 7288,
      "90": 7289,
      "face": 7290,
      "Ġaid": 7291,
      "Ġlinked": 7292,
      "Ġsplashing": 7293,
      "Ġvacation": 7294,
      "Ġmechanic": 7295,
      "ĠWhite": 7296,
      "Qu": 7297,
      "bed": 7298,
      "Ġmale": 7299,
      "atform": 7300,
      "ÃŃ": 7301,
      "ĠLilly": 7302,
      "Ġalg": 7303,
      "Ġpossess": 7304,
      "ittee": 7305,
      "Ġwreck": 7306,
      "New": 7307,
      "Yuck": 7308,
      "Ġmort": 7309,
      "arnt": 7310,
      "Ġwaters": 7311,
      "Ġinsisted": 7312,
      "Ġurban": 7313,
      "Ġsituations": 7314,
      "Ġatmosphere": 7315,
      "Ġlearnt": 7316,
      "Ġcastles": 7317,
      "Ġmarks": 7318,
      "Ġpreviously": 7319,
      "Ġinstitutions": 7320,
      "Ġclinical": 7321,
      "nect": 7322,
      "Ġ2005": 7323,
      "Ġwid": 7324,
      "rian": 7325,
      "Ġcruc": 7326,
      "Ġhurricane": 7327,
      "Ġpalm": 7328,
      "Ġrid": 7329,
      "alled": 7330,
      "ĠNet": 7331,
      "Ġradiation": 7332,
      "ĠSpace": 7333,
      "Ġgene": 7334,
      "Ġauthors": 7335,
      "ĠHIV": 7336,
      "ĠEllie": 7337,
      "Ġexpression": 7338,
      "Ġconclud": 7339,
      "oops": 7340,
      "apa": 7341,
      "Ġreducing": 7342,
      "Ġspeaking": 7343,
      "Ġcircum": 7344,
      "Alice": 7345,
      "Ġawareness": 7346,
      "Ġfasc": 7347,
      "ĠSque": 7348,
      "ĠNews": 7349,
      "Ġpets": 7350,
      "ander": 7351,
      "well": 7352,
      "Ġhearing": 7353,
      "Ġsurgery": 7354,
      "Ġpartners": 7355,
      "Ġupd": 7356,
      "Ġclapping": 7357,
      "Ġregarding": 7358,
      "standing": 7359,
      "ternal": 7360,
      "ĠMexico": 7361,
      "respond": 7362,
      "micals": 7363,
      "Ġsample": 7364,
      "Ġtrib": 7365,
      "ĠCur": 7366,
      "Ġtruly": 7367,
      "Ġvehicles": 7368,
      "ĠChildren": 7369,
      "Ġinstructions": 7370,
      "33": 7371,
      "ĠFollow": 7372,
      "Ġ2016": 7373,
      "Although": 7374,
      "Ġneighbour": 7375,
      "75": 7376,
      "ĠDave": 7377,
      "Ġcherry": 7378,
      "According": 7379,
      "Ġexhib": 7380,
      "Ġchirp": 7381,
      "Ġobt": 7382,
      "Ġefficiency": 7383,
      "Ġparticles": 7384,
      "ĠProject": 7385,
      "Ġmigr": 7386,
      "Ġhen": 7387,
      "Ġdoctors": 7388,
      "Ġobvious": 7389,
      "ounced": 7390,
      "roduction": 7391,
      "Ġessay": 7392,
      "Ġprofession": 7393,
      "ole": 7394,
      "inter": 7395,
      "igration": 7396,
      "ĠLibr": 7397,
      "Ġsoak": 7398,
      "Ġvul": 7399,
      "ĠStar": 7400,
      "Ġcrops": 7401,
      "erves": 7402,
      "isis": 7403,
      "ĠMal": 7404,
      "elines": 7405,
      "Ġspaces": 7406,
      "Ġfocused": 7407,
      "mons": 7408,
      "verty": 7409,
      "ĠWork": 7410,
      "Ġpoverty": 7411,
      "Ġprocedure": 7412,
      "hal": 7413,
      "ĠPhys": 7414,
      "ĠFlor": 7415,
      "ception": 7416,
      "Ġparticipants": 7417,
      "Ġpa": 7418,
      "ĠDi": 7419,
      "Ġimpossible": 7420,
      "Ġviolence": 7421,
      "Ġshock": 7422,
      "Ġbackpack": 7423,
      "ĠDem": 7424,
      "Mark": 7425,
      "Ġnarr": 7426,
      "Ġcircuit": 7427,
      "Ready": 7428,
      "ĠGovernment": 7429,
      "Ġdare": 7430,
      "ĠSub": 7431,
      "Ġsandcast": 7432,
      "Ġ90": 7433,
      "band": 7434,
      "Ġgroc": 7435,
      "Ġtract": 7436,
      "berg": 7437,
      "Ġexperts": 7438,
      "Ġdoub": 7439,
      "Ġbreathe": 7440,
      "but": 7441,
      "ĠElly": 7442,
      "that": 7443,
      "Ġarticles": 7444,
      "Ġoccurred": 7445,
      "Ġcampaign": 7446,
      "ĠSn": 7447,
      "opes": 7448,
      "ĠVirgin": 7449,
      "Ġ186": 7450,
      "ĠSte": 7451,
      "iel": 7452,
      "rep": 7453,
      "ĠLife": 7454,
      "Ph": 7455,
      "atically": 7456,
      "umble": 7457,
      "Ġ2017": 7458,
      "Ġamounts": 7459,
      "Ġmanner": 7460,
      "Ġclaws": 7461,
      "Ġmeowed": 7462,
      "Ġcollege": 7463,
      "Ġadvanced": 7464,
      "Ġsufficient": 7465,
      "Emma": 7466,
      "Ġpitch": 7467,
      "Ġreferred": 7468,
      "encing": 7469,
      "Ġreaction": 7470,
      "BC": 7471,
      "Ġgained": 7472,
      "Ġracing": 7473,
      "ĠCle": 7474,
      "Ġsched": 7475,
      "Ġgrocery": 7476,
      "ĠSoph": 7477,
      "ĠBay": 7478,
      "Ġworms": 7479,
      "Ġsnugg": 7480,
      "Ġturning": 7481,
      "Ġtested": 7482,
      "Ġgolden": 7483,
      "ta": 7484,
      "erals": 7485,
      "ĠBaby": 7486,
      "Ġscold": 7487,
      "ĠJud": 7488,
      "Ġcoord": 7489,
      "Ġsparkled": 7490,
      "Ġmostly": 7491,
      "Ġblowing": 7492,
      "Ġmassage": 7493,
      "Ġmeasuring": 7494,
      "Welcome": 7495,
      "ĠEv": 7496,
      "ormal": 7497,
      "Ġpulling": 7498,
      "ĠFrank": 7499,
      "Ġdigging": 7500,
      "ologists": 7501,
      "Ġprote": 7502,
      "Ġkingdom": 7503,
      "ĠFood": 7504,
      "ĠUp": 7505,
      "Ġdistinct": 7506,
      "Ġdepending": 7507,
      "RE": 7508,
      "umn": 7509,
      "anta": 7510,
      "Ġbringing": 7511,
      "Ġhyper": 7512,
      "Ġneighborhood": 7513,
      "Ġannual": 7514,
      "Ġsqueezed": 7515,
      "Ġexit": 7516,
      "Ġcomment": 7517,
      "ĠRub": 7518,
      "Ġkeeps": 7519,
      "Ġcharacters": 7520,
      "tes": 7521,
      "Ġ+": 7522,
      "Ġheight": 7523,
      "Ġenzy": 7524,
      "Ġraining": 7525,
      "Ġprocessing": 7526,
      "Ġfolded": 7527,
      "Ġhorm": 7528,
      "olute": 7529,
      "Ġpra": 7530,
      "Ġwelcom": 7531,
      "which": 7532,
      "ĠCD": 7533,
      "ĠKiki": 7534,
      "Ġallowing": 7535,
      "Ġprofessor": 7536,
      "Ġfamiliar": 7537,
      "OS": 7538,
      "Ġlecture": 7539,
      "Ġskill": 7540,
      "Ġmainly": 7541,
      "Fred": 7542,
      "Ġvital": 7543,
      "Ġexplains": 7544,
      "Ġnightmare": 7545,
      "Ġfarmers": 7546,
      "Ġextent": 7547,
      "Ġeth": 7548,
      "ĠSen": 7549,
      "ilit": 7550,
      "Ġmoist": 7551,
      "Ġstrawberries": 7552,
      "fr": 7553,
      "mas": 7554,
      "ĠBudd": 7555,
      "Ġliber": 7556,
      "reeze": 7557,
      "Ġlemonade": 7558,
      "Ġinternal": 7559,
      "Ġrelevant": 7560,
      "Ġphotos": 7561,
      "Ġconcepts": 7562,
      "Ġprunes": 7563,
      "Ġbreaking": 7564,
      "Ġsolid": 7565,
      "Ġinsects": 7566,
      "Ġincorpor": 7567,
      "Ġcognitive": 7568,
      "Ġwaving": 7569,
      "Ġnic": 7570,
      "Ġinput": 7571,
      "Ġsynt": 7572,
      "Ġconsult": 7573,
      "Ġvictory": 7574,
      "Ġfoss": 7575,
      "alog": 7576,
      "Ġsupplies": 7577,
      "Ġcurriculum": 7578,
      "Ġengineering": 7579,
      "ĠStudents": 7580,
      "ien": 7581,
      "urance": 7582,
      "Ġinfections": 7583,
      "Ġ70": 7584,
      "fall": 7585,
      "ĠMart": 7586,
      "ĠMummy": 7587,
      "Ġotherwise": 7588,
      "Ġreduction": 7589,
      "Ġprinter": 7590,
      "Ġcombined": 7591,
      "Ġproposed": 7592,
      "ĠHarry": 7593,
      "aria": 7594,
      "Ġcoats": 7595,
      "ption": 7596,
      "Ġexposed": 7597,
      "Ġbouncing": 7598,
      "Ġargument": 7599,
      "ĠBritain": 7600,
      "da": 7601,
      "ville": 7602,
      "ĠTuesday": 7603,
      "ĠMicro": 7604,
      "Ġperspective": 7605,
      "Ġgifts": 7606,
      "ĠAcade": 7607,
      "tic": 7608,
      "roid": 7609,
      "Ġblink": 7610,
      "ĠGet": 7611,
      "Ġvegetable": 7612,
      "Ġinvolve": 7613,
      "Sur": 7614,
      "oves": 7615,
      "ructure": 7616,
      "ĠMandy": 7617,
      "Ġflapped": 7618,
      "olester": 7619,
      "atched": 7620,
      "Ġconservation": 7621,
      "Ġlargely": 7622,
      "Ġlayer": 7623,
      "Ġliterature": 7624,
      "ĠSecond": 7625,
      "Ġbumped": 7626,
      "Ġdesert": 7627,
      "ĠFinny": 7628,
      "Ġordered": 7629,
      "Ġshrugged": 7630,
      "Ġdiscussed": 7631,
      "Ġthoughts": 7632,
      "Ġdaisy": 7633,
      "More": 7634,
      "Ġprices": 7635,
      "Ġhousehold": 7636,
      "Ġstrategy": 7637,
      "Ġâ": 7638,
      "Ġunits": 7639,
      "osing": 7640,
      "Ġperfectly": 7641,
      "Ġyawned": 7642,
      "ires": 7643,
      "Ġdiss": 7644,
      "Ġtrial": 7645,
      "Ġcertainly": 7646,
      "Ġgaz": 7647,
      "sey": 7648,
      "ĠLola": 7649,
      "Ġvroom": 7650,
      "ĠGigi": 7651,
      "Ġprayer": 7652,
      "Ġecosystem": 7653,
      "Ġfal": 7654,
      "Ġupstairs": 7655,
      "Ġneither": 7656,
      "ĠEnergy": 7657,
      "Ġreplaced": 7658,
      "going": 7659,
      "olesterol": 7660,
      "Ġforgotten": 7661,
      "Ġdemocr": 7662,
      "Ġcorrespond": 7663,
      "ĠYes": 7664,
      "ĠAsia": 7665,
      "Ġillustr": 7666,
      "Ġsubjects": 7667,
      "Ġarrang": 7668,
      "arly": 7669,
      "Ġliver": 7670,
      "Ġproport": 7671,
      "Ġmovements": 7672,
      "Ġsecure": 7673,
      "Ġspending": 7674,
      "Ġoutdo": 7675,
      "ĠDist": 7676,
      "Ġflight": 7677,
      "38": 7678,
      "oh": 7679,
      "Ġsigh": 7680,
      "istan": 7681,
      "Ġblog": 7682,
      "Ġattrib": 7683,
      "Ġinvestigate": 7684,
      "Ġnutrients": 7685,
      "wo": 7686,
      "wood": 7687,
      "acific": 7688,
      "Ġfundamental": 7689,
      "Ġpedal": 7690,
      "looking": 7691,
      "RO": 7692,
      "ago": 7693,
      "ancer": 7694,
      "Ġfiles": 7695,
      "bal": 7696,
      "sed": 7697,
      "Ġwrites": 7698,
      "Ġinvitation": 7699,
      "Ġelectrical": 7700,
      "ĠTor": 7701,
      "Ġmetab": 7702,
      "Ġexpand": 7703,
      "Ġresponsibility": 7704,
      "Pl": 7705,
      "agon": 7706,
      "Ġoutcomes": 7707,
      "Ġintended": 7708,
      "ipes": 7709,
      "Ġfloated": 7710,
      "Ġtremble": 7711,
      "Ġexcellent": 7712,
      "then": 7713,
      "Ġplatform": 7714,
      "Ġencount": 7715,
      "Ġvictim": 7716,
      "Ġsir": 7717,
      "ĠBible": 7718,
      "ĠAir": 7719,
      "Ġabuse": 7720,
      "Ġsweetheart": 7721,
      "Ġhundreds": 7722,
      "ĠService": 7723,
      "Ġsouthern": 7724,
      "Ġsolved": 7725,
      "Jenny": 7726,
      "rum": 7727,
      "uting": 7728,
      "ĠHoppy": 7729,
      "Ġsettled": 7730,
      "Ġtongue": 7731,
      "ca": 7732,
      "ys": 7733,
      "Ġnations": 7734,
      "Ġchoices": 7735,
      "Ġarmy": 7736,
      "Ġunf": 7737,
      "Ġpoppy": 7738,
      "Ġmarked": 7739,
      "Ġmotiv": 7740,
      "onic": 7741,
      "ĠBas": 7742,
      "Ġextract": 7743,
      "Ġurge": 7744,
      "48": 7745,
      "bi": 7746,
      "ĠBee": 7747,
      "Ġapparent": 7748,
      "________": 7749,
      "een": 7750,
      "ĠTit": 7751,
      "Ġspecifically": 7752,
      "Ġtex": 7753,
      "Ġsorts": 7754,
      "Ġgender": 7755,
      "Ġmere": 7756,
      "Ġfeature": 7757,
      "Ġsets": 7758,
      "Ġcenturies": 7759,
      "Ġsurrounding": 7760,
      "Ġgranted": 7761,
      "Ġhabitat": 7762,
      "Ġcontinues": 7763,
      "Ġpurposes": 7764,
      "aded": 7765,
      "Ġperman": 7766,
      "Ġnorthern": 7767,
      "Most": 7768,
      "eters": 7769,
      "Ġshed": 7770,
      "ĠJer": 7771,
      "Ġpersons": 7772,
      "Ġpurs": 7773,
      "Ġstatement": 7774,
      "ĠConstitution": 7775,
      "tered": 7776,
      "Ġimpacts": 7777,
      "iatric": 7778,
      "van": 7779,
      "ĠGrace": 7780,
      "Ġvitamin": 7781,
      "ĠLatin": 7782,
      "Ġadvance": 7783,
      "Ġbegins": 7784,
      "Ġinstruction": 7785,
      "ĠMedicine": 7786,
      "ĠTed": 7787,
      "Ġjazz": 7788,
      "ĠEverything": 7789,
      "Ġconcerns": 7790,
      "Ġmanufacture": 7791,
      "Ġtwice": 7792,
      "Ġvolt": 7793,
      "Everyone": 7794,
      "Ġdouble": 7795,
      "Im": 7796,
      "Ġdent": 7797,
      "state": 7798,
      "ĠOp": 7799,
      "Ġsyndrome": 7800,
      "Ġlessons": 7801,
      "Ġcapable": 7802,
      "ĠOrgan": 7803,
      "ĠData": 7804,
      "osen": 7805,
      "Ġminimum": 7806,
      "Ġcandles": 7807,
      "ĠThose": 7808,
      "Ġdepends": 7809,
      "Ġattacks": 7810,
      "Ġdefinition": 7811,
      "Ġvaccine": 7812,
      "CC": 7813,
      "heast": 7814,
      "Ġbes": 7815,
      "ĠStudies": 7816,
      "Ġdiagnosis": 7817,
      "'.": 7818,
      "RI": 7819,
      "no": 7820,
      "Ġshouldn": 7821,
      "ĠAnother": 7822,
      "ĠLibrary": 7823,
      "orial": 7824,
      "idges": 7825,
      "Ġrandom": 7826,
      "Ġchemicals": 7827,
      "oyal": 7828,
      "Ġsits": 7829,
      "Ġconcerned": 7830,
      "Ġrenew": 7831,
      "ĠST": 7832,
      "ĠOx": 7833,
      "Ġblueberry": 7834,
      "Ġkidney": 7835,
      "lar": 7836,
      "west": 7837,
      "Ġbrus": 7838,
      "Ġprints": 7839,
      "Ġtwisted": 7840,
      "ĠMake": 7841,
      "ects": 7842,
      "avity": 7843,
      "ĠFranc": 7844,
      "Ġrevolution": 7845,
      "Ġacademic": 7846,
      "Ġcert": 7847,
      "Ġ35": 7848,
      "39": 7849,
      "ĠEventually": 7850,
      "ĠÃ": 7851,
      "terday": 7852,
      "Ġwhistled": 7853,
      "ĠCommission": 7854,
      "Ġtug": 7855,
      "Ġstands": 7856,
      "ĠCarol": 7857,
      "MS": 7858,
      "Ġtoes": 7859,
      "Ġcott": 7860,
      "icit": 7861,
      "Ġwilling": 7862,
      "Ġdressed": 7863,
      "AD": 7864,
      "ĠDise": 7865,
      "Ġrealize": 7866,
      "ĠOnly": 7867,
      "ĠMaria": 7868,
      "pat": 7869,
      "Ġaren": 7870,
      "Ġofficer": 7871,
      "Ġlatest": 7872,
      "ĠEnvironmental": 7873,
      "EL": 7874,
      "ĠMass": 7875,
      "umin": 7876,
      "Ġbeds": 7877,
      "Ġzigzag": 7878,
      "Ġdresses": 7879,
      "36": 7880,
      "born": 7881,
      "craft": 7882,
      "Ġcontinuous": 7883,
      "Ġexamined": 7884,
      "Ġargued": 7885,
      "rastructure": 7886,
      "Br": 7887,
      "Ġsatell": 7888,
      "Ġphase": 7889,
      "Ġpractical": 7890,
      "point": 7891,
      "Ġcontr": 7892,
      "Ġindeed": 7893,
      "Ġships": 7894,
      "Ġexistence": 7895,
      "Ġaccurate": 7896,
      "Ġsed": 7897,
      "ague": 7898,
      "Ġgloves": 7899,
      "Ġrelief": 7900,
      "Ġrefug": 7901,
      "Ġdepth": 7902,
      "Ġvisible": 7903,
      "Ġpassing": 7904,
      "Ġdivided": 7905,
      "Ġadjust": 7906,
      "Ġsandcastle": 7907,
      "78": 7908,
      "attle": 7909,
      "Ġideal": 7910,
      "Ġgreatest": 7911,
      "Ġgovernments": 7912,
      "Ġidentity": 7913,
      "Ġachieved": 7914,
      "ĠColumb": 7915,
      "Ġdestr": 7916,
      "Ġvulner": 7917,
      "AP": 7918,
      "Ġ#": 7919,
      "Ġbang": 7920,
      "Ġexternal": 7921,
      "Ġemail": 7922,
      "ĠSum": 7923,
      "Ġmatters": 7924,
      "Ġelephants": 7925,
      "Ġauthority": 7926,
      "itics": 7927,
      "ĠWell": 7928,
      "osc": 7929,
      "Ġclaims": 7930,
      "hi": 7931,
      "Ġ×": 7932,
      "Ġnine": 7933,
      "Ġconsists": 7934,
      "Ġtreatments": 7935,
      "Ġpresc": 7936,
      "Ġtechnical": 7937,
      "Ġvanished": 7938,
      "Daddy": 7939,
      "Ġcontribute": 7940,
      "ita": 7941,
      "Ġvoices": 7942,
      "ĠSnowy": 7943,
      "Ġbrief": 7944,
      "ĠWil": 7945,
      "Ġstem": 7946,
      "ĠMont": 7947,
      "Ġtrapped": 7948,
      "Ġwags": 7949,
      "Ġsimpl": 7950,
      "Ġyounger": 7951,
      "Ġpeanuts": 7952,
      "Ġtoxic": 7953,
      "burg": 7954,
      "pic": 7955,
      "ĠWild": 7956,
      "ĠCivil": 7957,
      "Ġgod": 7958,
      "Ġfloating": 7959,
      "name": 7960,
      "ini": 7961,
      "Ġlinks": 7962,
      "Ġrein": 7963,
      "Ġ2001": 7964,
      "Ġcaptain": 7965,
      "ĠBeh": 7966,
      "Ġfault": 7967,
      "ĠCatholic": 7968,
      "mi": 7969,
      "abase": 7970,
      "Ġpuzzles": 7971,
      "ascular": 7972,
      "Ġprecise": 7973,
      "Ġagricultural": 7974,
      "Ġir": 7975,
      "ĠPip": 7976,
      "Ġcareer": 7977,
      "Ġlets": 7978,
      "Ġformation": 7979,
      "Ġscoop": 7980,
      "Ġextensive": 7981,
      "ĠMedical": 7982,
      "itness": 7983,
      "iled": 7984,
      "estion": 7985,
      "Ġexchange": 7986,
      "ĠJose": 7987,
      "Ġcrisis": 7988,
      "part": 7989,
      "ĠHaw": 7990,
      "Ġvast": 7991,
      "ĠPost": 7992,
      "Ġsailing": 7993,
      "Ġincreasingly": 7994,
      "Ġcontrolled": 7995,
      "yn": 7996,
      "Ġsess": 7997,
      "omy": 7998,
      "ĠLater": 7999,
      "Ġpotentially": 8000,
      "Ġtypical": 8001,
      "Ġharvest": 8002,
      "Ġexclaimed": 8003,
      "Ġslightly": 8004,
      "Ġnit": 8005,
      "Ġnav": 8006,
      "ĠMoon": 8007,
      "Ġtexture": 8008,
      "abric": 8009,
      "iah": 8010,
      "Ġsustainable": 8011,
      "bits": 8012,
      "ka": 8013,
      "lers": 8014,
      "Ġhus": 8015,
      "otic": 8016,
      "ĠFurther": 8017,
      "ĠJoey": 8018,
      "Ġprimarily": 8019,
      "Ad": 8020,
      "Ġfu": 8021,
      "Ġmic": 8022,
      "Ġlemons": 8023,
      "ĠWind": 8024,
      "ĠNature": 8025,
      "Ġcontest": 8026,
      "Ġunlike": 8027,
      "Ġnuclear": 8028,
      "Ġshouting": 8029,
      "Ġtomatoes": 8030,
      "Ġtips": 8031,
      "arry": 8032,
      "ĠCoco": 8033,
      "Ġshopkeeper": 8034,
      "Ġsecondary": 8035,
      "Ġemployees": 8036,
      "Ġbites": 8037,
      "Ġdisagree": 8038,
      "edia": 8039,
      "Ġbeat": 8040,
      "Ġchosen": 8041,
      "Ġprison": 8042,
      "Ġdollars": 8043,
      "Ġroads": 8044,
      "adows": 8045,
      "ĠWhenever": 8046,
      "Ġhurting": 8047,
      "Ġtopics": 8048,
      "Ġdirector": 8049,
      "Ġhoriz": 8050,
      "Ġaffects": 8051,
      "Pe": 8052,
      "Ġmama": 8053,
      "Ġstored": 8054,
      "Ġchann": 8055,
      "Ġgoods": 8056,
      "Ġsyn": 8057,
      "Ġelimin": 8058,
      "Ġminerals": 8059,
      "Ġfigures": 8060,
      "ĠOwl": 8061,
      "amily": 8062,
      "Ġhighlight": 8063,
      "Ġends": 8064,
      "ĠSharing": 8065,
      "ĠDel": 8066,
      "Ġjustice": 8067,
      "Ġacted": 8068,
      "rete": 8069,
      "Ġ189": 8070,
      "Ġperiods": 8071,
      "Ġrapidly": 8072,
      "Ġhits": 8073,
      "Ġlatter": 8074,
      "Ġrising": 8075,
      "Ġapproaches": 8076,
      "Ġcomponent": 8077,
      "ĠLucky": 8078,
      "Ġ2003": 8079,
      "ario": 8080,
      "Ġcholesterol": 8081,
      "ĠUsing": 8082,
      "itz": 8083,
      "ĠHop": 8084,
      "enses": 8085,
      "Ġsnowball": 8086,
      ".|": 8087,
      "Ġcong": 8088,
      "ĠBook": 8089,
      "road": 8090,
      "Ġdistingu": 8091,
      "Ġsafari": 8092,
      "Ġloose": 8093,
      "Ġpetals": 8094,
      "Ġfrequency": 8095,
      "ĠAustralian": 8096,
      "Ġmountains": 8097,
      "igenous": 8098,
      "ĊĠ": 8099,
      "ĠMem": 8100,
      "Ġquietly": 8101,
      "Ġmailman": 8102,
      "Ġtreasures": 8103,
      "Ġstroke": 8104,
      "Woof": 8105,
      "rich": 8106,
      "ros": 8107,
      "Ġseats": 8108,
      "Ġunless": 8109,
      "Ġspiritual": 8110,
      "Ġfiber": 8111,
      "ĠLong": 8112,
      "Ġwinner": 8113,
      "Ġsprink": 8114,
      "ĠFlorida": 8115,
      "airy": 8116,
      "Ġwrit": 8117,
      "Another": 8118,
      "ĠSqueaky": 8119,
      "ĠTreat": 8120,
      "Ġfireworks": 8121,
      "ĠAtl": 8122,
      "itage": 8123,
      "ĠSqu": 8124,
      "ends": 8125,
      "Ġperce": 8126,
      "ĠLearning": 8127,
      "Ġinvestment": 8128,
      "ĠCentral": 8129,
      "Ġfacilities": 8130,
      "Ġselected": 8131,
      "Ġmanufacturing": 8132,
      "Mimi": 8133,
      "Ġsucceeded": 8134,
      "ĠTem": 8135,
      "Ġcontaining": 8136,
      "ĠStand": 8137,
      "ificial": 8138,
      "Ġprocedures": 8139,
      "walk": 8140,
      "Ġlux": 8141,
      "ĠElect": 8142,
      "Ġinfected": 8143,
      "Ġcompetition": 8144,
      "Ġnarrow": 8145,
      "eck": 8146,
      "Ġfract": 8147,
      "Ġabsolute": 8148,
      "Ġdynam": 8149,
      "Ġcrucial": 8150,
      "46": 8151,
      "Ġpaints": 8152,
      "Ġcovers": 8153,
      "Ġindicate": 8154,
      "Ġyawn": 8155,
      "Ġkil": 8156,
      "Ġsubstance": 8157,
      "Ġsector": 8158,
      "Ġwob": 8159,
      "adian": 8160,
      "usive": 8161,
      "ĠSpring": 8162,
      "Ġdram": 8163,
      "Ġwooden": 8164,
      "Ġsurvive": 8165,
      "col": 8166,
      "vis": 8167,
      "Ġhem": 8168,
      "Ġsnail": 8169,
      "Ġphr": 8170,
      "ĠGroup": 8171,
      "Ġcandid": 8172,
      "spec": 8173,
      "Ġmassive": 8174,
      "ĠCompany": 8175,
      "ammation": 8176,
      "ĠLand": 8177,
      "Ġhadn": 8178,
      "Ġeveryday": 8179,
      "Ġ2002": 8180,
      "Ġblankets": 8181,
      "ii": 8182,
      "uster": 8183,
      "Ġglob": 8184,
      "Ġremaining": 8185,
      "Ġprinting": 8186,
      "Ġ1998": 8187,
      "ĠAnnie": 8188,
      "lishing": 8189,
      "acts": 8190,
      "Ġinterests": 8191,
      "ĠLouis": 8192,
      "ĠPacific": 8193,
      "Ġprevention": 8194,
      "Ġacorns": 8195,
      "sembly": 8196,
      "OT": 8197,
      "cest": 8198,
      "ls": 8199,
      "ĠTime": 8200,
      "Ġopposite": 8201,
      "Ġvideos": 8202,
      "Ġadopted": 8203,
      "ĠFoundation": 8204,
      "ĠVirginia": 8205,
      "Ġchapter": 8206,
      "Ġpeaches": 8207,
      "ocal": 8208,
      "cience": 8209,
      "Ġaudience": 8210,
      "inations": 8211,
      "active": 8212,
      "Ġrefers": 8213,
      "Ġadministration": 8214,
      "100": 8215,
      "88": 8216,
      "Ġreaching": 8217,
      "Ġkitty": 8218,
      "Ġsunlight": 8219,
      "Ġafford": 8220,
      "Ġwandered": 8221,
      "Ġdecrease": 8222,
      "Ġdetailed": 8223,
      "Ġwelcomed": 8224,
      "Ġpul": 8225,
      "aya": 8226,
      "Ġoperating": 8227,
      "Ġbiological": 8228,
      "Ġnaturally": 8229,
      "Ġappreciate": 8230,
      "iac": 8231,
      "Ġfib": 8232,
      "itud": 8233,
      "Ġsoci": 8234,
      "Ġprotecting": 8235,
      "ĠInter": 8236,
      "Ġcollecting": 8237,
      "Ġdescribes": 8238,
      "Ġofficials": 8239,
      "ĠPri": 8240,
      "Ġpros": 8241,
      "Ġwatered": 8242,
      "down": 8243,
      "Ġsports": 8244,
      "Ġfever": 8245,
      "Ġinfrastructure": 8246,
      "Ġchewed": 8247,
      "ua": 8248,
      "Ġcape": 8249,
      "Ġoh": 8250,
      "Ġherbs": 8251,
      "celer": 8252,
      "ifi": 8253,
      "Ġgrade": 8254,
      "ĠGold": 8255,
      "ĠGoogle": 8256,
      "Ġbusinesses": 8257,
      "Ġmaximum": 8258,
      "Ġoral": 8259,
      "omething": 8260,
      "Ġbricks": 8261,
      "ĠAdm": 8262,
      "Ġcooper": 8263,
      "ĠBounce": 8264,
      "ĠMittens": 8265,
      "ĠAD": 8266,
      "Ġoranges": 8267,
      "Ġgrowled": 8268,
      "Ġcourses": 8269,
      "Ġfeeding": 8270,
      "win": 8271,
      "Ġages": 8272,
      "oys": 8273,
      "iament": 8274,
      "ĠTechnology": 8275,
      "isp": 8276,
      "owers": 8277,
      "Ġchief": 8278,
      "Ġusual": 8279,
      "tenance": 8280,
      "Ġregularly": 8281,
      "Ġmonitoring": 8282,
      "Ġolive": 8283,
      "Ġstated": 8284,
      "Ġgrey": 8285,
      "Ġsliding": 8286,
      "Ġworker": 8287,
      "Ġkeys": 8288,
      "ĠEmp": 8289,
      "Ġviews": 8290,
      "Ġportion": 8291,
      "ĠCharles": 8292,
      "ĠAny": 8293,
      "ĠKore": 8294,
      "ĠRead": 8295,
      "Ġcapture": 8296,
      "Rem": 8297,
      "Ġgal": 8298,
      "Ġgall": 8299,
      "vert": 8300,
      "ĠBC": 8301,
      "ĠMars": 8302,
      "ĠNations": 8303,
      "Ġinches": 8304,
      "Ġmouths": 8305,
      "Ġvalid": 8306,
      "Ġtitle": 8307,
      "inent": 8308,
      "ulin": 8309,
      "Ġremark": 8310,
      "Ġ45": 8311,
      "ĠClass": 8312,
      "Ġsuitable": 8313,
      "gment": 8314,
      "ample": 8315,
      "Ġowned": 8316,
      ".;": 8317,
      "Fr": 8318,
      "Ġmuddy": 8319,
      "owing": 8320,
      "acob": 8321,
      "Ġlies": 8322,
      "ĠRay": 8323,
      "Ġpastel": 8324,
      "Ġdelivered": 8325,
      "ĠInformation": 8326,
      "Ġcircumst": 8327,
      "olars": 8328,
      "ĠRights": 8329,
      "Ġsubsequ": 8330,
      "Ġfailed": 8331,
      "Ġinch": 8332,
      "ĠEconom": 8333,
      "Ġvelvet": 8334,
      "Ġproteins": 8335,
      "IL": 8336,
      "aks": 8337,
      "Ġunable": 8338,
      "Ġnowhere": 8339,
      "ĠFinn": 8340,
      "Ġmarbles": 8341,
      "Ġurged": 8342,
      "ĠManagement": 8343,
      "Ġslap": 8344,
      "Ġbouncy": 8345,
      "ĠMiddle": 8346,
      "free": 8347,
      "ĠLeg": 8348,
      "Ġimproving": 8349,
      "Ġfaced": 8350,
      "ĠSuch": 8351,
      "ources": 8352,
      "Ġshopping": 8353,
      "Ġsubstant": 8354,
      "Ġvanish": 8355,
      "Ġmelting": 8356,
      "99": 8357,
      "CO": 8358,
      "itable": 8359,
      "orter": 8360,
      "Ġstitch": 8361,
      "ucked": 8362,
      "Ġacts": 8363,
      "ibilities": 8364,
      "Ġmarine": 8365,
      "ĠChristmas": 8366,
      "Ġproceed": 8367,
      "Ġmyth": 8368,
      "Ġacting": 8369,
      "Ġgenerate": 8370,
      "Ġintelligence": 8371,
      "Ġentirely": 8372,
      "Ġexperiments": 8373,
      "ĠFroggy": 8374,
      "Ġfalse": 8375,
      "44": 8376,
      "Ġsen": 8377,
      "ona": 8378,
      "Ġchores": 8379,
      "ĠYet": 8380,
      "Ġmelted": 8381,
      "Ġiniti": 8382,
      "Have": 8383,
      "Other": 8384,
      "hist": 8385,
      "Ġdiversity": 8386,
      "Ġrecyc": 8387,
      "Ġaccomp": 8388,
      "Ġsatisf": 8389,
      "lements": 8390,
      "iration": 8391,
      "Ġplenty": 8392,
      "stone": 8393,
      "ĠDiv": 8394,
      "Ġsubm": 8395,
      "Ġpregnancy": 8396,
      "Ġdut": 8397,
      "Ġours": 8398,
      "ccer": 8399,
      "ĠEngine": 8400,
      "Ġsnuggled": 8401,
      "32": 8402,
      "ilding": 8403,
      "Ġcomputers": 8404,
      "va": 8405,
      "Ġyucky": 8406,
      "asm": 8407,
      "Ġarray": 8408,
      "Ġheaded": 8409,
      "Ġcommit": 8410,
      "Ġdrawn": 8411,
      "Ġfunding": 8412,
      "Ġsamples": 8413,
      "Ġlicks": 8414,
      "Ġtremb": 8415,
      "resents": 8416,
      "ĠMuslim": 8417,
      "lig": 8418,
      "itors": 8419,
      "Ġstages": 8420,
      "ĠDef": 8421,
      "Ġprepar": 8422,
      "Ġstruck": 8423,
      "Ġresting": 8424,
      "Ġelectronic": 8425,
      "ĠIslam": 8426,
      "PD": 8427,
      "Ġnan": 8428,
      "Ġgap": 8429,
      "ĠSir": 8430,
      "Ġconscious": 8431,
      "ĠArab": 8432,
      "Ġ1990": 8433,
      "Ġdocuments": 8434,
      "ĠSupp": 8435,
      "Ġbaked": 8436,
      "ĠArmy": 8437,
      "oxide": 8438,
      "Ġintroduction": 8439,
      "esity": 8440,
      "Ġmoments": 8441,
      "Ġchrom": 8442,
      "Ġ2019": 8443,
      "76": 8444,
      "ya": 8445,
      "Ġwestern": 8446,
      "olve": 8447,
      "Ġmixing": 8448,
      "Ġerr": 8449,
      "Ġtwisty": 8450,
      "Ġfrozen": 8451,
      "500": 8452,
      "Ġgluc": 8453,
      "Ġrecover": 8454,
      "Ġpaintings": 8455,
      "Ġsumm": 8456,
      "Ġcustomers": 8457,
      "Americ": 8458,
      "SD": 8459,
      "avery": 8460,
      "ĠScient": 8461,
      "oted": 8462,
      "ensus": 8463,
      "Ġzone": 8464,
      "iggly": 8465,
      "Ġroutine": 8466,
      "itative": 8467,
      "Ġinject": 8468,
      "Ġcatching": 8469,
      "ĠProfessor": 8470,
      "ĠControl": 8471,
      "Ġenhance": 8472,
      "Ġobtained": 8473,
      "sm": 8474,
      "Ġfabric": 8475,
      "Ġcaut": 8476,
      "Ġdensity": 8477,
      "Ġreform": 8478,
      "Ġera": 8479,
      "Ġpotatoes": 8480,
      "Ġmaps": 8481,
      "Ġstruct": 8482,
      "Ġsilence": 8483,
      "Ġmagnetic": 8484,
      "while": 8485,
      "ĠPers": 8486,
      "ĠZoomy": 8487,
      "Ġpaused": 8488,
      "ĠHall": 8489,
      "ibl": 8490,
      "Ġdepos": 8491,
      "ĠCharlie": 8492,
      "agers": 8493,
      "Ġsorting": 8494,
      "Ġbleeding": 8495,
      "Ġsin": 8496,
      "Ġscales": 8497,
      "Ġchoo": 8498,
      "Ġrecovery": 8499,
      "ĠVict": 8500,
      "Ġbehaviour": 8501,
      "ĠParis": 8502,
      "Ġemphas": 8503,
      "Gen": 8504,
      "hand": 8505,
      "reet": 8506,
      "ste": 8507,
      "Ġclot": 8508,
      "being": 8509,
      "Ġregister": 8510,
      "Ed": 8511,
      "Ġmood": 8512,
      "ĠBer": 8513,
      "Ġpears": 8514,
      "Ġcontem": 8515,
      "Ġproducing": 8516,
      "Ġcolle": 8517,
      "Ġeagerly": 8518,
      "ĠQueen": 8519,
      "ga": 8520,
      "Ġcuts": 8521,
      "bridge": 8522,
      "Ġurl": 8523,
      "85": 8524,
      "Since": 8525,
      "Ġplayers": 8526,
      "ĠMet": 8527,
      "Ġsoccer": 8528,
      "ĠWr": 8529,
      "ĠCamp": 8530,
      "ĠSpain": 8531,
      "ĠSpark": 8532,
      "ĠGal": 8533,
      "Ġsupporting": 8534,
      "Ġmillions": 8535,
      "Ġkisses": 8536,
      "Ġexplanation": 8537,
      "ĠTilly": 8538,
      "Ġsurvival": 8539,
      "ĠFederal": 8540,
      ".'": 8541,
      "pan": 8542,
      "ĠPC": 8543,
      "osion": 8544,
      "ressed": 8545,
      "Ġmedium": 8546,
      "Ġ185": 8547,
      "Ġnormally": 8548,
      "Ġoriginally": 8549,
      "Ġprinciple": 8550,
      "gent": 8551,
      "Ġspill": 8552,
      "anguage": 8553,
      "Ġaccounts": 8554,
      "achel": 8555,
      "ĠSea": 8556,
      "Ġhttps": 8557,
      "ĠRussia": 8558,
      "ivery": 8559,
      "Ġpure": 8560,
      "Ġdared": 8561,
      "Ġbridges": 8562,
      "ĠOh": 8563,
      "Ġrepresents": 8564,
      "Ġinterview": 8565,
      "arant": 8566,
      "ented": 8567,
      "Ġsigned": 8568,
      "ĠHistor": 8569,
      "ĠSing": 8570,
      "roat": 8571,
      "hyl": 8572,
      "Ġinternet": 8573,
      "Ġproduces": 8574,
      "Ġrivers": 8575,
      "Ġescaped": 8576,
      "inate": 8577,
      "erving": 8578,
      "Ġtwenty": 8579,
      "Ġpossibly": 8580,
      "Ġbeneficial": 8581,
      "Ġbreathing": 8582,
      "alian": 8583,
      "ĠBal": 8584,
      "Ġconvent": 8585,
      "Ġcraft": 8586,
      "Ġlimits": 8587,
      "Ġjewels": 8588,
      "Ġinstruments": 8589,
      "Remy": 8590,
      "Ġhypothes": 8591,
      "Ġpurchase": 8592,
      "Ġdoubt": 8593,
      "49": 8594,
      "Ġshined": 8595,
      "ĠPenny": 8596,
      "Ġparam": 8597,
      "Ġmedications": 8598,
      "Ġagriculture": 8599,
      "ĠFrancis": 8600,
      "].": 8601,
      "hma": 8602,
      "stream": 8603,
      "Ġadequ": 8604,
      "Ġsuccessfully": 8605,
      "Bu": 8606,
      "long": 8607,
      "choo": 8608,
      "ĠWomen": 8609,
      "Ġprove": 8610,
      "ĠâĢ¦": 8611,
      "odes": 8612,
      "cium": 8613,
      "Ġavo": 8614,
      "Ġdinosaurs": 8615,
      "ĠNut": 8616,
      "Ġ300": 8617,
      "Ġfertil": 8618,
      "Ġcos": 8619,
      "ĠHy": 8620,
      "Ġreject": 8621,
      "Ġstock": 8622,
      "Ġdistrict": 8623,
      "Ġconfident": 8624,
      "Ġgazed": 8625,
      "65": 8626,
      "cers": 8627,
      "Ġdiverse": 8628,
      "Ġinhib": 8629,
      "ava": 8630,
      "Ġislands": 8631,
      "orith": 8632,
      "Ġraw": 8633,
      "Ġneut": 8634,
      "ctic": 8635,
      "bert": 8636,
      "Ġpossibility": 8637,
      "Ġantibiot": 8638,
      "Ġentr": 8639,
      "ĠEdward": 8640,
      "Ind": 8641,
      "Ġancest": 8642,
      "awn": 8643,
      "Ġresidents": 8644,
      "Ġwagging": 8645,
      "Ġmedication": 8646,
      "gi": 8647,
      "Ġhers": 8648,
      "ements": 8649,
      "Ġunp": 8650,
      "Ġleadership": 8651,
      "Ġvoltage": 8652,
      "cript": 8653,
      "âĢĺ": 8654,
      "ĠMillie": 8655,
      "Ġcomprehensive": 8656,
      "31": 8657,
      "ora": 8658,
      "Ġinner": 8659,
      "Ġthy": 8660,
      "ĠEff": 8661,
      "ĠâĢ¢": 8662,
      "formation": 8663,
      "allel": 8664,
      "ective": 8665,
      "Ġattend": 8666,
      "Ġextended": 8667,
      "ĠCommon": 8668,
      "Ġsensitive": 8669,
      "Ġfacilit": 8670,
      "Ġinjuries": 8671,
      "Ġsurrounded": 8672,
      "Ġphenomenon": 8673,
      "Ġhusband": 8674,
      "ativity": 8675,
      "ĠMa": 8676,
      "Ġbrand": 8677,
      "Ġobtain": 8678,
      "ĠConf": 8679,
      "Ġconcentration": 8680,
      "Bella": 8681,
      "Ġfif": 8682,
      "ĠFish": 8683,
      "Ġcakes": 8684,
      "Ġwatches": 8685,
      "Ġcrew": 8686,
      "ĠUnfortunately": 8687,
      "Ok": 8688,
      "Yum": 8689,
      "Ġmamm": 8690,
      "ĠSky": 8691,
      "unched": 8692,
      "Ġselection": 8693,
      "Ġtroops": 8694,
      "ĠBeing": 8695,
      "Ġerror": 8696,
      "Ġsuffered": 8697,
      "Ġpinched": 8698,
      "ION": 8699,
      "bie": 8700,
      "ias": 8701,
      "agues": 8702,
      "igned": 8703,
      "Ġscolded": 8704,
      "ĠAcademy": 8705,
      "bug": 8706,
      "normal": 8707,
      "rem": 8708,
      "ĠTake": 8709,
      "level": 8710,
      "cel": 8711,
      "Ġsore": 8712,
      "ĠAtt": 8713,
      "Ġtouching": 8714,
      "gie": 8715,
      "Ġcash": 8716,
      "Ġgri": 8717,
      "ĠAC": 8718,
      "roph": 8719,
      "Ġdefe": 8720,
      "Ġcheek": 8721,
      "itionally": 8722,
      "Ġ2020": 8723,
      "Ġvisiting": 8724,
      "Ġspoons": 8725,
      "Ġwildlife": 8726,
      "Moral": 8727,
      "Ġkm": 8728,
      "ĠPapa": 8729,
      "osal": 8730,
      "Ġsnapped": 8731,
      "Cont": 8732,
      "Ġcolours": 8733,
      "Ġcreates": 8734,
      "omeday": 8735,
      "ĠJoseph": 8736,
      "Ġluxury": 8737,
      "37": 8738,
      "Even": 8739,
      "war": 8740,
      "Ġtrig": 8741,
      "Ġattitude": 8742,
      "Ġinflammation": 8743,
      "Ġappearance": 8744,
      "Ġstuffed": 8745,
      "Ġguidelines": 8746,
      "Ġmobile": 8747,
      "athy": 8748,
      "Ġprem": 8749,
      "Ġpron": 8750,
      "ĠRoyal": 8751,
      "Ġsubs": 8752,
      "Ġgenerated": 8753,
      "Ġfewer": 8754,
      "Ġwaffles": 8755,
      "Ġfart": 8756,
      "ĠHope": 8757,
      "ĠPub": 8758,
      "Ġlisted": 8759,
      "Ġforests": 8760,
      "Ġzipped": 8761,
      "ĠPrin": 8762,
      "Ġsequence": 8763,
      "HO": 8764,
      "lling": 8765,
      "Ġspike": 8766,
      "Ġcontained": 8767,
      "Ġsentence": 8768,
      "Ġlined": 8769,
      "abul": 8770,
      "Ġconstitution": 8771,
      "Ġdecade": 8772,
      "Ġunlocked": 8773,
      "Ġrelaxed": 8774,
      "89": 8775,
      "ĠTony": 8776,
      "Ġwaist": 8777,
      "ĠPower": 8778,
      "ĠZara": 8779,
      "Ġnecessarily": 8780,
      "Ġimmun": 8781,
      "ĠRemember": 8782,
      "ĠSophie": 8783,
      "ĠSandy": 8784,
      "amil": 8785,
      "Ġskipping": 8786,
      "Ġaqu": 8787,
      "Ġtoler": 8788,
      "Ġdisaster": 8789,
      "Ġresolution": 8790,
      "reland": 8791,
      "Ġmaintenance": 8792,
      "Ġbanks": 8793,
      "Ġjogging": 8794,
      "Ġruler": 8795,
      "ĠDisease": 8796,
      "Ġsip": 8797,
      "Ġnails": 8798,
      "ĠAI": 8799,
      "Ġchart": 8800,
      "Ġvote": 8801,
      "ĠOcean": 8802,
      "ĠValley": 8803,
      "Ġexercises": 8804,
      "ĠDanny": 8805,
      "acc": 8806,
      "Ġshadows": 8807,
      "Ġworldwide": 8808,
      "ironments": 8809,
      "alysis": 8810,
      "ĠConnect": 8811,
      "Ġoptim": 8812,
      "Ġdamaged": 8813,
      "Ġinstrument": 8814,
      "Ġbatteries": 8815,
      "ĠReport": 8816,
      "Ġfossil": 8817,
      "ĠWhe": 8818,
      "Ġpositions": 8819,
      "Ġoccasion": 8820,
      "irring": 8821,
      "yr": 8822,
      "Ġincl": 8823,
      "ĠReview": 8824,
      "Ġconfir": 8825,
      "Ġnetworks": 8826,
      "Ġresponses": 8827,
      "Ġ1980": 8828,
      "eor": 8829,
      "sen": 8830,
      "Ġwww": 8831,
      "ĠEc": 8832,
      "Ġmulti": 8833,
      "Ġkicking": 8834,
      "Ġadministr": 8835,
      "Dog": 8836,
      "onaut": 8837,
      "ston": 8838,
      "Ġlips": 8839,
      "itely": 8840,
      "Ġstrangers": 8841,
      "ĠZeal": 8842,
      "Ġnutrition": 8843,
      "inity": 8844,
      "utch": 8845,
      "ĠLake": 8846,
      "bey": 8847,
      "Ġhealthcare": 8848,
      "Ġnerve": 8849,
      "utive": 8850,
      "ala": 8851,
      "ĠAN": 8852,
      "ĠVis": 8853,
      "Ġregional": 8854,
      "Ġ2018": 8855,
      "Ġadvoc": 8856,
      "Ġcorpor": 8857,
      "ĠGlobal": 8858,
      "Ġassistance": 8859,
      "Ġweeping": 8860,
      "mother": 8861,
      "Ġpies": 8862,
      "Ġmanip": 8863,
      "ĠPinky": 8864,
      "Ġcompare": 8865,
      "ĠVal": 8866,
      "ĠIndians": 8867,
      "Ġtel": 8868,
      "ĠIreland": 8869,
      "Ġcones": 8870,
      "itches": 8871,
      "Ġconfidence": 8872,
      "ĠClimate": 8873,
      "ĠScott": 8874,
      "Ġimmediate": 8875,
      "Ġtwirled": 8876,
      "ĠMichael": 8877,
      "ĠRichard": 8878,
      "rimination": 8879,
      "enz": 8880,
      "Ġinhab": 8881,
      "ĠDid": 8882,
      "Ġpride": 8883,
      "Ġsignals": 8884,
      "Ġdelivery": 8885,
      "Ġprotocol": 8886,
      "cknow": 8887,
      "Ġdecline": 8888,
      "Ġserver": 8889,
      "Ġminim": 8890,
      "Ġcommunicate": 8891,
      "ĠThrough": 8892,
      "34": 8893,
      "ĠToto": 8894,
      "lym": 8895,
      "Ġabund": 8896,
      "Ġgrows": 8897,
      "Ġsisters": 8898,
      "Ġapproached": 8899,
      "Ġastronom": 8900,
      "ĠZealand": 8901,
      "emy": 8902,
      "eath": 8903,
      "Ġheating": 8904,
      "iminal": 8905,
      "Ġgrin": 8906,
      "Ġdesire": 8907,
      "Ġobservations": 8908,
      "BS": 8909,
      "you": 8910,
      "ĠAcc": 8911,
      "ĠFriend": 8912,
      "Ġagencies": 8913,
      "ĠPenn": 8914,
      "Ġformal": 8915,
      "Stud": 8916,
      "Ġviruses": 8917,
      "Ġbeliefs": 8918,
      "Ġcircumstances": 8919,
      "%)": 8920,
      "Ġtore": 8921,
      "Ġmur": 8922,
      "ĠGree": 8923,
      "Ġdraws": 8924,
      "Ġengage": 8925,
      "US": 8926,
      "ras": 8927,
      "inating": 8928,
      "ĠIll": 8929,
      "ĠKen": 8930,
      "ĠKids": 8931,
      "Ġsurprising": 8932,
      "ĠExpl": 8933,
      "Ġratio": 8934,
      "Ġdomestic": 8935,
      "Ġwound": 8936,
      "estyle": 8937,
      "ĠAsian": 8938,
      "Ġconsistent": 8939,
      "Ġstruggling": 8940,
      "Ġsomeday": 8941,
      "inction": 8942,
      "ĠCare": 8943,
      "ĠDC": 8944,
      "Ġframework": 8945,
      "Ġpunished": 8946,
      "Ġpermanent": 8947,
      "how": 8948,
      "Ġhes": 8949,
      "Ġspat": 8950,
      "Ġcontam": 8951,
      "Ġacceler": 8952,
      "Ġexplo": 8953,
      "ifications": 8954,
      "Ġdrives": 8955,
      "Ġteaches": 8956,
      "Ġelectro": 8957,
      "Ġsorted": 8958,
      "Ġgathering": 8959,
      "Ġharmful": 8960,
      "ĠUSA": 8961,
      "ĠAbout": 8962,
      "Med": 8963,
      "OC": 8964,
      "heim": 8965,
      "heric": 8966,
      "Ġwarmth": 8967,
      "Ġpillows": 8968,
      "Ġguessed": 8969,
      "Ġbehaviors": 8970,
      "Ġtables": 8971,
      "ĠTer": 8972,
      "ĠSanta": 8973,
      "Ġ31": 8974,
      "Ġdescription": 8975,
      "eline": 8976,
      "ĠFifi": 8977,
      "Ġintake": 8978,
      "ĠBluey": 8979,
      "Ġwires": 8980,
      "Ġthousand": 8981,
      "Ġprincip": 8982,
      "Ġalgorith": 8983,
      "Ġprofessionals": 8984,
      "aved": 8985,
      "anny": 8986,
      "Ġenable": 8987,
      "Ġbowed": 8988,
      "ĠIrish": 8989,
      "ĠOffice": 8990,
      "ĠEmpire": 8991,
      "86": 8992,
      "ĠMount": 8993,
      "haust": 8994,
      "Ġimplementation": 8995,
      "Ġoat": 8996,
      "andon": 8997,
      "Ġsafer": 8998,
      "Ġshooting": 8999,
      "Ġtraum": 9000,
      "Ġdatabase": 9001,
      "Sc": 9002,
      "ĠSouthern": 9003,
      "Ġreader": 9004,
      "Ġhardly": 9005,
      "Ġgenerations": 9006,
      "Ġequival": 9007,
      "oke": 9008,
      "Ġbare": 9009,
      "ĠWally": 9010,
      "Ġclimbs": 9011,
      "Ġethn": 9012,
      "ymph": 9013,
      "Ġstrengthen": 9014,
      "Ġtransportation": 9015,
      "Ġfetch": 9016,
      "stein": 9017,
      "Ġflap": 9018,
      "ĠSpirit": 9019,
      "Ġintervention": 9020,
      "Ġguarant": 9021,
      "Ġarrive": 9022,
      "ĠWithout": 9023,
      "Ġ1999": 9024,
      "Ġcultiv": 9025,
      "DA": 9026,
      "ippy": 9027,
      "ican": 9028,
      "Ġstirring": 9029,
      "ĠPM": 9030,
      "raph": 9031,
      "Ġformat": 9032,
      "Ġdifficulty": 9033,
      "Ġmechanism": 9034,
      "des": 9035,
      "aying": 9036,
      "Ġvet": 9037,
      "emic": 9038,
      "ĠCanadian": 9039,
      "Ġsupports": 9040,
      "Ġcoastal": 9041,
      "Ġaccomplish": 9042,
      "loy": 9043,
      "inn": 9044,
      "Ġfig": 9045,
      "ĠList": 9046,
      "Ġwarming": 9047,
      "Ġdiscipl": 9048,
      "Ġtwigs": 9049,
      "ĠRevolution": 9050,
      "ĠRuby": 9051,
      "Ġ*": 9052,
      "Ġsings": 9053,
      "Ġconnections": 9054,
      "Ġmarching": 9055,
      "wr": 9056,
      "Ġbio": 9057,
      "ĠWatch": 9058,
      "ĠUs": 9059,
      "Ġfiref": 9060,
      "Ġprecious": 9061,
      "Ġcultures": 9062,
      "Ġthor": 9063,
      "Ġrural": 9064,
      "Ġrely": 9065,
      "Ġenemy": 9066,
      "ĠUncle": 9067,
      "Ġbalanced": 9068,
      "Ġhurried": 9069,
      "Ġdemonstrated": 9070,
      "Ġdial": 9071,
      "agram": 9072,
      "ferent": 9073,
      "izer": 9074,
      "Ġmessages": 9075,
      "Ġdeaths": 9076,
      "Ġevalu": 9077,
      "ĠForest": 9078,
      "Surprise": 9079,
      "icago": 9080,
      "Ġtwin": 9081,
      "Ġpartner": 9082,
      "ĠVer": 9083,
      "Ġaircraft": 9084,
      "Ġsidewalk": 9085,
      "Ġpresentation": 9086,
      "Get": 9087,
      "upp": 9088,
      "luding": 9089,
      "ĠHoly": 9090,
      "Ġacknow": 9091,
      "stand": 9092,
      "Ġrelation": 9093,
      "Goodbye": 9094,
      "cons": 9095,
      "from": 9096,
      "ok": 9097,
      "ĠMel": 9098,
      "ifies": 9099,
      "Ġarrest": 9100,
      "Ġgreatly": 9101,
      "Ġwriter": 9102,
      "ĠStat": 9103,
      "ĠStep": 9104,
      "Meow": 9105,
      "Ġemotions": 9106,
      "77": 9107,
      "RC": 9108,
      "arter": 9109,
      "icut": 9110,
      "ĠWiggly": 9111,
      "ĠKat": 9112,
      "Ġimprovement": 9113,
      "Ġfunds": 9114,
      "ĠTur": 9115,
      "omic": 9116,
      "Ġpupp": 9117,
      "Ġbegged": 9118,
      "Ġmechanisms": 9119,
      "ĠStudy": 9120,
      "ĠBoard": 9121,
      "Ġwitness": 9122,
      "Ġmold": 9123,
      "ĠKnow": 9124,
      "ĠProv": 9125,
      "Ġcomparison": 9126,
      "Am": 9127,
      "Ġsan": 9128,
      "aren": 9129,
      "Ġmeals": 9130,
      "osph": 9131,
      "âĢĻ.": 9132,
      "Ġadoles": 9133,
      "Ġteasing": 9134,
      "Ġindex": 9135,
      "Ġtrips": 9136,
      "called": 9137,
      "ih": 9138,
      "ĠTry": 9139,
      "etics": 9140,
      "ĠPsych": 9141,
      "Ġpoems": 9142,
      "Ġprett": 9143,
      "Ġeats": 9144,
      "Ġenvironments": 9145,
      "Ġ1995": 9146,
      "Ġpupil": 9147,
      "ĠBre": 9148,
      "Ġstaying": 9149,
      "Ġpolar": 9150,
      "Ġdestruction": 9151,
      "esis": 9152,
      "ĠBoo": 9153,
      "asty": 9154,
      "Ġserving": 9155,
      "Ġ500": 9156,
      "Ġseconds": 9157,
      "Ġderived": 9158,
      "ĠRosie": 9159,
      "Ġtonight": 9160,
      "ppers": 9161,
      "ĠAgr": 9162,
      "umed": 9163,
      "Ġregul": 9164,
      "Ġregulations": 9165,
      "Ġringing": 9166,
      "Ġ1970": 9167,
      "sting": 9168,
      "ĠWood": 9169,
      "Ġreaders": 9170,
      "ypes": 9171,
      "Ġdebate": 9172,
      "Ġmathematics": 9173,
      "itudes": 9174,
      "Ġexists": 9175,
      "ĠPut": 9176,
      "ĠNatural": 9177,
      "Ġstrings": 9178,
      "Ġvessels": 9179,
      "ĠCarolina": 9180,
      "oly": 9181,
      "ĠLove": 9182,
      "embers": 9183,
      "Ġbudget": 9184,
      "Ġterritory": 9185,
      "mia": 9186,
      "ĠCancer": 9187,
      "ĠJeff": 9188,
      "Ġintest": 9189,
      "Ġcentre": 9190,
      "Ġscholars": 9191,
      "Over": 9192,
      "ĠHome": 9193,
      "ĠFire": 9194,
      "anted": 9195,
      "ĠPy": 9196,
      "Ġblind": 9197,
      "Ġsteep": 9198,
      "ĠLearn": 9199,
      "Ġ1997": 9200,
      "Ġ<": 9201,
      "rey": 9202,
      "Ġfol": 9203,
      "ĠSa": 9204,
      "leg": 9205,
      "ĠLabor": 9206,
      "htm": 9207,
      "ĠEr": 9208,
      "Blue": 9209,
      "71": 9210,
      "reats": 9211,
      "Ġlick": 9212,
      "grad": 9213,
      "Ġcostumes": 9214,
      "Ġmechanical": 9215,
      "Ġstamps": 9216,
      "Ġexpressed": 9217,
      "dent": 9218,
      "power": 9219,
      "Ġbreeze": 9220,
      "Ġovercome": 9221,
      "Ġcritic": 9222,
      "Ġauthorities": 9223,
      "Ġrepresented": 9224,
      "Ġglucose": 9225,
      "ansion": 9226,
      "Ġmonitor": 9227,
      "ĠAlways": 9228,
      "Ġstreets": 9229,
      "Ġparticipate": 9230,
      "Ġultimately": 9231,
      "ean": 9232,
      "Ġtang": 9233,
      "ĠTHE": 9234,
      "ĠJacob": 9235,
      "Ġoffering": 9236,
      "Ġtrained": 9237,
      "Ġmixture": 9238,
      "Ġdecorations": 9239,
      "ĠSlow": 9240,
      "oor": 9241,
      "aming": 9242,
      "Ġlaunch": 9243,
      "ĠSciences": 9244,
      "Ġinteraction": 9245,
      "Ġcrowd": 9246,
      "iences": 9247,
      "Ġtheirs": 9248,
      "Ġfoundation": 9249,
      "Ġagency": 9250,
      "Ġchef": 9251,
      "Ġreactions": 9252,
      "Ġinstitution": 9253,
      "ĠNorthern": 9254,
      "Ġlaboratory": 9255,
      "Mandy": 9256,
      "Ġacids": 9257,
      "Ġpiles": 9258,
      "Ġstealing": 9259,
      "Ġinnovation": 9260,
      "Ġcomments": 9261,
      "Ġimper": 9262,
      "ĠKate": 9263,
      "Ġlocations": 9264,
      "Ġteams": 9265,
      "Ġintellect": 9266,
[...]
